'<pad>_'
'<EOS>_'
'the_'
' , _'
' ._'
'_'
'to_'
's_'
'of_'
'a_'
'and_'
'in_'
' '_'
'-_'
'on_'
'that_'
'for_'
'is_'
'The_'
'was_'
'ed_'
'with_'
'ing_'
'said_'
'as_'
'at_'
'it_'
' " _'
'd_'
'by_'
'e_'
'be_'
'from_'
'._'
'he_'
'an_'
'y_'
'have_'
'his_'
'has_'
'are_'
't_'
'. _'
'not_'
'will_'
' , " _'
'I_'
'or_'
'" _'
'who_'
'had_'
'their_'
'UNK_'
'were_'
'es_'
' ( _'
'but_'
'they_'
'this_'
'been_'
'n_'
'more_'
'its_'
'year_'
'which_'
'ly_'
'would_'
'up_'
'er_'
'about_'
'one_'
' -- _'
'r_'
'out_'
'after_'
'her_'
'than_'
'also_'
'two_'
'A_'
' $ _'
'you_'
'when_'
'It_'
'people_'
'first_'
'over_'
'm_'
',_'
'all_'
'can_'
' : _'
'time_'
'last_'
'1_'
'S_'
'But_'
'He_'
'into_'
'o_'
'ng_'
'we_'
'al_'
'she_'
'In_'
'Mr_'
'new_'
'other_'
'could_'
'l_'
' ) _'
'there_'
'years_'
'some_'
'U_'
'2_'
'them_'
'so_'
' ' _'
'no_'
'ers_'
'if_'
'3_'
'ion_'
'percent_'
'000_'
'government_'
'only_'
'just_'
'three_'
'him_'
'million_'
'what_'
've_'
'before_'
'5_'
'most_'
'h_'
're_'
' ?_'
'like_'
'back_'
'because_'
'4_'
'now_'
'off_'
'k_'
'i_'
'do_'
'where_'
'man_'
'us_'
'rs_'
' - _'
'per_'
'being_'
'ts_'
'against_'
'way_'
'Obama_'
'week_'
'ation_'
'6_'
'down_'
'made_'
'many_'
'le_'
'day_'
'old_'
'while_'
' . "_'
'New_'
'through_'
'get_'
'our_'
'told_'
'home_'
'10_'
'such_'
'any_'
'st_'
'well_'
'world_'
'g_'
'make_'
' ; _'
'We_'
'p_'
'ted_'
'since_'
'says_'
'how_'
'0_'
'say_'
'between_'
'7_'
'may_'
'able_'
'those_'
'state_'
'even_'
'my_'
'company_'
'work_'
'much_'
'country_'
'ies_'
'led_'
'second_'
'should_'
'This_'
'then_'
'still_'
'ment_'
'during_'
'police_'
'under_'
'th_'
'four_'
'did_'
'including_'
'en_'
'8_'
'And_'
'high_'
'They_'
'ry_'
'United_'
'9_'
'long_'
'take_'
'your_'
'next_'
'group_'
'less_'
'son_'
'go_'
'found_'
'billion_'
' ) , _'
'month_'
'tion_'
'very_'
'te_'
'former_'
'officials_'
'American_'
' £ _'
'20_'
'ds_'
'C_'
'ty_'
'five_'
'O'
'ons_'
'ce_'
'ic_'
'ting_'
'US_'
'me_'
'public_'
'nt_'
' / _'
'part_'
'night_'
'c_'
'help_'
'President_'
'There_'
'end_'
'both_'
'Wednesday_'
'good_'
'going_'
'ors_'
'own_'
'children_'
'see_'
'Friday_'
'another_'
'30_'
'game_'
'around_'
'market_'
'Monday_'
'ns_'
'these_'
'Tuesday_'
' ) - _'
'set_'
'll_'
'team_'
'president_'
'de_'
'ne_'
'used_'
'months_'
'season_'
'use_'
'ch_'
'life_'
'left_'
'top_'
'B'
'age_'
'Thursday_'
'E'
'A'
'money_'
'called_'
'same_'
'D_'
'reported_'
'That_'
'days_'
'P'
'don_'
'se_'
'cent_'
'York_'
'third_'
'right_'
'ent_'
'run_'
'She_'
'men_'
'family_'
'If_'
'ls_'
'expected_'
'think_'
'place_'
'ions_'
'business_'
'China_'
'report_'
'health_'
'too_'
'number_'
'won_'
'according_'
'AP_'
'w_'
'know_'
'As_'
'might_'
'show_'
'need_'
'based_'
'put_'
'ble_'
'took_'
'six_'
'quarter_'
'2008_'
'x_'
'points_'
'financial_'
'early_'
'city_'
'want_'
'away_'
'15_'
'political_'
'2009_'
'12_'
'ter_'
'D'
'Sunday_'
'States_'
'case_'
'best_'
'half_'
'N_'
'military_'
'few_'
'come_'
'land_'
'U'
'For_'
'already_'
'ago_'
'here_'
' : " _'
'care_'
'M'
'far_'
'economic_'
'line_'
'least_'
'ck_'
'without_'
' ) ._'
'I'
'each_'
'S'
'support_'
'whether_'
'red_'
'ally_'
' _'
'court_'
'came_'
'11_'
'later_'
'cy_'
'power_'
'ments_'
'ks_'
'ton_'
'past_'
'Saturday_'
'z_'
'British_'
' % _'
'system_'
'ate_'
'50_'
'win_'
'ous_'
'( _'
'House_'
'until_'
'ive_'
'head_'
'house_'
'ge_'
'um_'
'point_'
'ful_'
'never_'
'C'
'f_'
'South_'
' ) -- _'
'ke_'
'pay_'
'got_'
'better_'
'lead_'
'T'
'T_'
'today_'
'killed_'
' . _'
'ss_'
'added_'
'chief_'
'big_'
'Washington_'
'London_'
'companies_'
'play_'
'news_'
'hit_'
'members_'
'women_'
'little_'
'deal_'
'every_'
'among_'
'information_'
'At_'
'several_'
'plan_'
'school_'
' . '
'security_'
'party_'
'am_'
' & _'
'economy_'
'recent_'
'On_'
'2007_'
'car_'
'likely_'
'ves_'
'making_'
'ling_'
'G'
'25_'
' '
'held_'
'become_'
'No_'
'start_'
'give_'
'P_'
'taken_'
'change_'
'One_'
'campaign_'
'National_'
'sh_'
'bank_'
'late_'
'field_'
'R'
'L'
'move_'
'does_'
'ings_'
'North_'
'rate_'
'near_'
'When_'
'known_'
'el_'
'times_'
'ra'
'final_'
'taking_'
'close_'
'John_'
'sales_'
'global_'
'oil_'
'major_'
'body_'
'side_'
'nce_'
'full_'
'election_'
'announced_'
'O_'
'war_'
'free_'
'find_'
'0'
'went_'
'tax_'
'America_'
'pro'
'seven_'
'office_'
'across_'
'March_'
'small_'
'prices_'
'plans_'
'et_'
'death_'
'Lo'
'working_'
'face_'
'ties_'
'local_'
'You_'
'water_'
'law_'
'must_'
'ary_'
'16_'
'si'
'ever_'
'enough_'
'site_'
'record_'
'14_'
'100_'
'ity_'
'ding_'
'England_'
'though_'
'king_'
'cut_'
'ver_'
'lost_'
'World_'
'saying_'
'national_'
'13_'
'decision_'
'Police_'
'June_'
'Al'
'future_'
'really_'
'given_'
'W'
'17_'
'area_'
'L_'
'due_'
'died_'
'West_'
'His_'
'3'
'again_'
'share_'
'European_'
'18_'
'nearly_'
'UK_'
'weeks_'
'return_'
'Iraq_'
'young_'
'industry_'
'leaders_'
'leader_'
'ian_'
'federal_'
'service_'
'countries_'
'Di'
'y'
'spokesman_'
'job_'
'After_'
'tra'
'ia_'
'ure_'
'official_'
'eight_'
'cost_'
'Har'
'mon'
'term_'
'something_'
'earlier_'
'So_'
'R_'
'open_'
'international_'
'fire_'
'games_'
'others_'
'keep_'
'seen_'
'hard_'
'Ha'
'w'
'once_'
'director_'
'call_'
'almost_'
'University_'
'Ta'
'woman_'
'Se'
'hours_'
'statement_'
'price_'
'having_'
'program_'
'na'
'low_'
'ied_'
'H'
'24_'
'real_'
'Reuters_'
'trying_'
'room_'
'ring_'
'along_'
'Ka'
'look_'
'inter'
'hi'
'Sa'
'City_'
'ying_'
'yet_'
'fell_'
'capital_'
'didn_'
'M_'
'tic_'
'da'
'began_'
'authorities_'
'ant_'
'leading_'
'food_'
'ey_'
'Ra'
'shot_'
'nation_'
'executive_'
'Man'
'Brown_'
'meeting_'
'media_'
'li'
'great_'
'er'
'Iran_'
'E_'
'u_'
'Clinton_'
'Britain_'
'4'
'Ma'
'services_'
'ping_'
'markets_'
'coming_'
'often_'
'do'
'co_'
'State_'
'sta'
'large_'
'clear_'
'Bush_'
'du'
'Su'
'ning_'
'To'
'interest_'
'ar_'
'January_'
'whose_'
'using_'
'lly_'
'd'
'results_'
'town_'
'increase_'
'ance_'
'K'
'risk_'
'So'
'N'
'Ga'
'ie_'
'Do'
'5'
' . , _'
'April_'
'40_'
'no'
'course_'
'issue_'
'gs_'
'force_'
'Ro'
'ter'
'level_'
'der_'
'TV_'
'workers_'
'looking_'
'September_'
'Mu'
'F'
'2006_'
'series_'
'est_'
'board_'
'behind_'
'asked_'
'Ho'
'forces_'
'administration_'
'David_'
'believe_'
'Some_'
'199'
'largest_'
'What_'
't'
'le'
'ine'
'vote_'
'strong_'
'mar'
'la'
'following_'
'control_'
'wife_'
'na_'
'key_'
'es'
'che'
'i'
'gra'
'Mo'
'sa'
'problems_'
'attack_'
'Afghanistan_'
'minutes_'
'banks_'
'July_'
'comes_'
'bur'
'bo'
'b_'
'Me'
'ps_'
'fa'
'F_'
'19_'
'things_'
'name_'
'in'
'further_'
'current_'
'building_'
'to'
'round_'
'ro'
'outside_'
'ness_'
'fall_'
'ea'
'cho'
'study_'
'period_'
'ist_'
'important_'
'crisis_'
'With_'
'Li'
'te'
'received_'
'players_'
'les_'
'history_'
'father_'
'Chinese_'
'rt'
'growth_'
'ght_'
'back'
'B_'
'500_'
'why_'
'ley_'
'ck'
'ci'
'ar'
'sure_'
'oc'
'However_'
'thought_'
'started_'
'private_'
'energy_'
'higher_'
'May_'
'possible_'
'mo'
'jobs_'
'different_'
'Mar'
'Du'
'lu'
'always_'
'UPI_'
'visit_'
'thing_'
'provide_'
'ped_'
'McCain_'
'recently_'
'6'
'reports_'
'rates_'
'film_'
'ahead_'
'agency_'
'Republican_'
'Per'
'Department_'
'z'
'n'
'morning_'
'general_'
'Ste'
'vo'
'short_'
'en'
'ru'
'role_'
'released_'
'ina'
'continue_'
'air_'
'Ti'
'Ni'
'race_'
'ked_'
'hand_'
'front_'
'credit_'
'Re'
'can'
'bill_'
'60_'
'within_'
'policy_'
'minister_'
'k'
'ho'
'Ba'
'super'
'se'
'lo'
'com_'
'action_'
'up'
'foreign_'
'ded_'
'ated_'
'os_'
'lot_'
'ground_'
'charges_'
'Na'
'Ar'
'running_'
'paid_'
'ir'
'costs_'
'Pro'
'spending_'
'rather_'
'so'
'himself_'
'fourth_'
'al'
'Street_'
'Pa'
'Americans_'
'offer_'
'gave_'
'Senate_'
'students_'
'region_'
'include_'
'done_'
'co'
'ce'
'biggest_'
'available_'
'rea'
'Minister_'
'Inc_'
'Democratic_'
'Congress_'
'California_'
'tri'
'White_'
'Times_'
'Bo'
'All_'
'victory_'
'however_'
'den'
'ations_'
'research_'
'den_'
'Ru'
'Court_'
'sur'
'problem_'
'ney_'
'ial_'
'November_'
'sion_'
'rights_'
'played_'
'pi'
'per'
'evidence_'
'despite_'
'ari'
'position_'
'om'
'ma'
'live_'
'groups_'
'While_'
'Bank_'
'troops_'
'rose_'
'hold_'
'ed'
'Democrats_'
'online_'
'nuclear_'
'December_'
'became_'
'G_'
'Car'
'J_'
'states_'
'sol'
'Israel_'
'Bu'
'22_'
'zi'
'ned_'
'ess_'
'drug_'
'conference_'
'book_'
'ta'
'ra_'
'pre'
'ven'
'parents_'
'To_'
'News_'
'21_'
'2010_'
'wi'
'try_'
'talks_'
'staff_'
'pen'
'ni'
'mother_'
'forward_'
'ely_'
'community_'
'charged_'
'ac'
'Pri'
'India_'
'process_'
'presidential_'
'gi'
'Con'
'story_'
'lines_'
'doesn_'
'Michael_'
'va'
'ob'
'needed_'
'list_'
'ha'
'fully_'
'fact_'
'Le'
'means_'
'child_'
'average_'
'Europe_'
'An_'
'showed_'
'cash_'
'career_'
'arrested_'
'International_'
'Hu'
'x'
'member_'
'il_'
'gar'
'ba'
'Te'
'France_'
'saw_'
'go'
'Russia_'
'Ms_'
'miles_'
'getting_'
'ca'
'be'
'Vi'
'tu'
'together_'
'nine_'
'firm_'
'ms_'
'hu'
'event_'
'enti'
'data_'
'Jo'
'od'
'investors_'
'forced_'
'ch'
'black_'
'attacks_'
'although_'
'French_'
'spent_'
'order_'
'ol'
'legal_'
'latest_'
'gu'
'failed_'
'club_'
'Dr_'
'20'
'ult'
'trade_'
'nic'
'ne'
'ja'
'2005_'
'tes_'
'ner_'
'bor'
'Wi'
'October_'
'Fi'
'senior_'
'ny_'
'ham_'
'feel_'
'car'
'Mor'
'Bi'
'ma_'
'ct'
'brought_'
'Ri'
'turned_'
'thousands_'
'ta_'
'remain_'
'potential_'
'post_'
'p'
'der'
'debt_'
'buy_'
'Go'
'BBC_'
'main_'
'ine_'
'homes_'
'da_'
'bu'
'23_'
'non_'
'makes_'
'lea'
'insurance_'
'inc'
'fore'
'doing_'
'W_'
'Sch'
'Mc'
'Be'
'27_'
'10'
'turn_'
'ster_'
'ship_'
'is'
'areas_'
'ai'
'Ne'
'op'
'ke'
'gas_'
'compared_'
'Ki'
'Fa'
'total_'
'themselves_'
'scored_'
'man'
'lives_'
'issues_'
'involved_'
'investment_'
'ended_'
'development_'
'cu'
'He'
'August_'
'tur'
'shows_'
'mer'
'human_'
'Pakistan_'
'County_'
'under'
'soon_'
'rd_'
'jo'
'ig'
'Los_'
'wanted_'
'stop_'
'Japan_'
'Ja'
'In'
'zed_'
'ways_'
'qua'
'performance_'
'nothing_'
'helped_'
'form_'
'dy_'
'ay_'
'League_'
'Angeles_'
'lower_'
'ans_'
'Cha'
' !_'
'television_'
'sent_'
'release_'
'investigation_'
'goal_'
'cor'
'Da'
'--_'
'trial_'
'pressure_'
'fo'
'bad_'
'ag'
'V'
'Cu'
'7'
'wa'
'violence_'
'star_'
'par'
'm'
'har'
'em'
'198'
'yesterday_'
'white_'
'ul'
'sub'
'post'
'person_'
'ee'
'cri'
'ball_'
'ow_'
'ki'
'hospital_'
'ents_'
'demand_'
'Barack_'
'9'
'ze_'
'ws_'
'shares_'
'ga'
'dollars_'
'bra'
'Ko'
'ys_'
'rest_'
'meet_'
'fla'
'el'
'dead_'
'General_'
'Cup_'
'result_'
'qui'
'previous_'
'on'
'music_'
'match_'
'manager_'
'efforts_'
'chance_'
'as'
'Po'
' ... _'
'remains_'
'products_'
'pa'
'medical_'
'light_'
'ff_'
'appeared_'
'ability_'
'Co'
'technology_'
'loss_'
'lia'
'cases_'
'bring_'
'bar'
'Col'
'Ben'
'vi'
'ab'
'Tor'
'31_'
'2'
'worked_'
'rt_'
'probably_'
'ori'
'leave_'
'land'
'chairman_'
'Si'
'Ju'
'profit_'
'mis'
'ing'
'claims_'
'chi'
'San_'
'28_'
'ya'
'winning_'
'tor'
'serious_'
'rise_'
'let_'
'ford_'
'contract_'
'bit_'
'summer_'
'sti'
'single_'
'raised_'
'med_'
'conditions_'
'agreement_'
'accused_'
'La'
'playing_'
'hour_'
'We'
'200_'
'opposition_'
'ide'
'hope_'
'Web_'
'East_'
'Bur'
'Am'
'schools_'
'published_'
'prison_'
'operations_'
'her'
'growing_'
'als_'
'George_'
'En'
'vis'
'un'
'tions_'
'road_'
'ng'
'ju'
'friends_'
'fer'
'agreed_'
'Lu'
'J'
'February_'
'production_'
'officers_'
'living_'
'ite'
'Hi'
'Council_'
've'
'prime_'
'cli'
'El'
'works_'
'west_'
'table_'
'ris'
'player_'
'phone_'
'personal_'
'ging_'
'difficult_'
'central_'
'Sha'
'Last_'
'wide_'
'ua'
'needs_'
'nd_'
'mark_'
'ces_'
'allowed_'
'access_'
'Now_'
'project_'
'ish_'
'idea_'
'ged_'
'fight_'
'double_'
'wants_'
'value_'
'space_'
'cause_'
'ou'
'nts_'
'ko'
'Gu'
'De'
'stock_'
'pped_'
'out'
'huge_'
'h'
'These_'
'sts_'
'someone_'
'san'
'mat'
'ht'
'ali'
'ad_'
'Ca'
'worth_'
'we'
'video_'
'special_'
'similar_'
'question_'
'property_'
'pe'
'ona'
'ie'
'heart_'
'fi'
'f'
'ence_'
'bi'
'Many_'
'Fu'
'29_'
'18'
'view_'
'ver'
'title_'
'sex_'
'recession_'
'ep'
'either_'
'cted_'
'Bri'
'2004_'
'voters_'
'opened_'
'management_'
'kind_'
'gri'
'east_'
'cru'
'couple_'
'class_'
'anyone_'
'Ad'
'que'
'gg'
'families_'
'. , _'
'pri'
'ert'
'ele'
'closed_'
'break_'
'anti'
'Tra'
'Mac'
'Germany_'
'Bar'
'ur'
'uc'
'tried_'
'ti'
'sold_'
'oi'
'heard_'
'fe'
'experience_'
'allow_'
'Mad'
'James_'
' ) '
'weekend_'
'ut_'
'una'
'sell_'
'rm'
'officer_'
'hal'
'charge_'
'Paul_'
'Hol'
'CNN_'
'ste'
'pp'
'over'
'longer_'
'ker_'
'dra'
'annual_'
'Pe'
'tly_'
'sha'
'sal'
'safety_'
'rec'
'net_'
'ming_'
'26_'
'. '
'ur_'
'talk_'
'ski'
'shed_'
'ld_'
'bla'
'Two_'
'Robert_'
'trading_'
'sale_'
'ron'
'popular_'
'pat'
'ot'
'mid'
'mb'
'ists_'
'beat_'
'Smith_'
'8'
'step_'
'seems_'
'patients_'
'og'
'itself_'
'employees_'
'ard_'
'acc'
'Gra'
'training_'
'social_'
'sing_'
'mal'
'lle'
'housing_'
'est'
'cur'
'cra'
'build_'
'above_'
'St_'
'Kar'
's'
'ran_'
'pin'
'changes_'
'anti_'
'Tu'
'Lin'
'Gar'
'sed_'
'returned_'
'ka'
'ip'
'includes_'
'included_'
'hor'
'eli'
'concerns_'
'K_'
'35_'
'yn'
'tom'
'po'
'planned_'
'nu'
'ler_'
'figures_'
'dro'
'cuts_'
'bio'
'Je'
'treatment_'
'related_'
'fund_'
'especially_'
'Government_'
'ute'
'stage_'
'ric'
'reach_'
'example_'
'education_'
'ders_'
'ages_'
'Center_'
'une'
'ster'
'sla'
'met_'
'lli'
'judge_'
'gen'
'common_'
'Au'
'rn'
'ice_'
'giving_'
'ef'
'bn_'
'Z'
'Fo'
'Dar'
'Bas'
'Air'
'war'
'rules_'
'opening_'
'me'
'lit'
'levels_'
'je'
'ide_'
'hand'
'ft_'
'et'
'dep'
'customers_'
'continued_'
'Wa'
'V_'
'Em'
'ual_'
'straight_'
'situation_'
'quickly_'
'matter_'
'killing_'
'increased_'
'effort_'
'center_'
'cap'
'Port'
'Korea_'
'ym'
'ture_'
'port'
'pass_'
'oo'
'newspaper_'
'love_'
'climate_'
'anything_'
'air'
'Un'
'19'
'uct'
'travel_'
'test_'
'sign_'
'nd'
'mini'
'ia'
'dropped_'
'dia'
'di'
'described_'
'border_'
'aid_'
'Va'
'Han'
'Group_'
'Ber'
'Africa_'
'worst_'
'lay'
'dollar_'
'ban'
'ating_'
'act_'
'Even_'
'197'
'11'
'stay_'
'ft'
'fighting_'
'ets_'
'cars_'
'cal'
'Y_'
'Republicans_'
'How_'
'sse'
'sector_'
'mil'
'hopes_'
'fuel_'
'drive_'
'dit'
'disa'
'create_'
'Taliban_'
'Shi'
'She'
'Labour_'
'Ke'
'Iraqi_'
'trip_'
'tive_'
'stu'
'ran'
'port_'
'net'
'majority_'
'id_'
'husband_'
'hur'
'decided_'
'candidate_'
'budget_'
'bro'
'app'
'Russian_'
'Mus'
'80_'
'70_'
'xi'
'wrote_'
'su'
'star'
'independent_'
'for'
'fire'
'ct_'
'caused_'
'cancer_'
'ati'
'art_'
'WASHINGTON_'
'Del'
'success_'
'south_'
'she'
'scheduled_'
'perform'
'offered_'
'losses_'
'interview_'
'inside_'
'ile'
'elections_'
'drop_'
'dec'
'cha'
'cannot_'
'Min'
'Mexico_'
'Israeli_'
'Florida_'
'Fe'
'As'
'spa'
'ret'
'network_'
'lan'
'gui'
'focus_'
'ec'
'cer'
'bs_'
'believed_'
'More_'
'Ed'
'Chan'
'Cap'
'90_'
'ze'
'wea'
'tro'
'tal_'
'soldiers_'
'sense_'
'runs_'
'mission_'
'instead_'
'impact_'
'gone_'
'claimed_'
'cla'
'bid_'
'Net'
'EU_'
'Bre'
'za'
'treat'
'ses_'
'rin'
'mortgage_'
'lar'
'incident_'
'expect_'
'cat'
'at'
'ast'
'War'
'Sam'
'My_'
'Dr'
'tics_'
'residents_'
'peace_'
'nti'
'moved_'
'g'
'born_'
'attention_'
'approach_'
'Union_'
'Jones_'
'style_'
'questions_'
'nar'
'mean_'
'funds_'
'fast_'
'estimated_'
'account_'
'Secretary_'
'Prime_'
'Nor'
'Health_'
'German_'
'Dis'
'Bel'
'yo'
'ved_'
'tan'
'selling_'
'press_'
'defense_'
'actually_'
'Art'
'- _'
'whole_'
'unt'
'tre'
'til'
'para'
'ns'
'ld'
'la_'
'friend_'
'daughter_'
'conf'
'con'
'ap'
'Shar'
'Rod'
'Google_'
'Association_'
'Ag'
'45_'
'poor_'
'perhaps_'
'numbers_'
'north_'
'nes_'
'min'
'ities_'
'income_'
'girl_'
'football_'
'followed_'
'ell_'
'debate_'
'calls_'
'additional_'
'ad'
'Park_'
'Or'
'Bl'
'Ab'
'2003_'
'wing_'
'ving_'
'us'
'q'
'pon'
'io'
'happened_'
'date_'
'coach_'
'certain_'
'Ya'
'US'
'Tri'
'Che'
'terms_'
'review_'
'reason_'
'pan'
'mp'
'middle_'
'les'
'ise_'
'ib'
'everyone_'
'ds'
'committee_'
'bul'
'X'
'Den'
'Can'
'ry'
'overs'
'moment_'
'injured_'
'ff'
'cul'
'ances_'
'Texas_'
'Mer'
'Although_'
'words_'
'tell_'
'sun'
'shire_'
'rising_'
'movie_'
'hip_'
'ction_'
'consumer_'
'ban_'
'aff'
'Wal'
'Internet_'
'Australia_'
'wrong_'
'ug'
'sp'
'ri'
'read_'
'que_'
'operation_'
'fans_'
'bat'
'Sea'
'Office_'
'wan'
'vic'
'tor_'
'the'
'self_'
'search_'
'issued_'
'injury_'
'ges_'
'esse'
'eb'
'condition_'
'businesses_'
'base_'
'ang'
'amount_'
'Pu'
'Afghan_'
'parts_'
'mor'
'ious_'
'ched_'
'century_'
'cents_'
'act'
'yards_'
'wer'
'significant_'
'ready_'
'raise_'
'ple'
'parties_'
'particularly_'
'legislation_'
'fin'
'e'
'deep_'
'created_'
'council_'
'col'
'boy_'
'Scotland_'
'Mon'
'Her'
'Gold'
'victims_'
'tle'
'roll'
'rig'
'reporters_'
'ras'
'mas'
'loans_'
'let'
'fort'
'exc'
'effect_'
'drugs_'
'defend'
'decades_'
'deb'
'cen'
'attempt_'
'ade'
'Res'
'Pi'
'Not_'
'No'
'H_'
'300_'
'version_'
'true_'
'represent'
'quality_'
'oy'
'ole'
'nat'
'ign'
'if'
'experts_'
'ere'
'ent'
'dic'
'comment_'
'au'
'Committee_'
'Commission_'
'Chicago_'
'Bro'
'ue_'
'pack'
'lic'
'indi'
'flo'
'events_'
'door_'
'des_'
'article_'
'ane'
'Kat'
'00_'
'wor'
'win'
'wasn_'
'v'
'teams_'
'spi'
'measures_'
'gn'
'gan_'
'felt_'
'everything_'
'eti'
'ese_'
'eri'
'details_'
'currently_'
'cover_'
'b'
'ani'
'aged_'
'Then_'
'School_'
'Ann'
'yl'
'yard_'
'tim'
'spend_'
'plu'
'overall_'
'minute_'
'ive'
'hundreds_'
'dee'
'built_'
'ain_'
'Za'
'Sta'
'Par'
'By_'
'warned_'
'und'
'threat_'
'suffered_'
'station_'
'sho'
'range_'
'quite_'
'ption_'
'nn'
'knew_'
'ins_'
'ically_'
'hin'
'hearing_'
'ene'
'bre'
'address_'
'Party_'
'PRNewswire_'
'Is_'
'Ex'
'ye'
'sma'
'simply_'
'revenue_'
'present_'
'owner_'
'moving_'
'leaving_'
'ky_'
'gers_'
'fre'
'finally_'
'disease_'
'dis'
'din'
'confirmed_'
'conce'
'analysts_'
'ah_'
'Pen'
'Os'
'Ku'
'Beijing_'
' ? _'
' ..._'
'yt'
'winner_'
'trans'
'response_'
'reached_'
'prom'
'named_'
'mit'
'looked_'
'kept_'
'figure_'
'dri'
'damage_'
'alleged_'
'Sal'
'African_'
'vers'
'st'
'source_'
'ser'
'prevent_'
'oti'
'isn_'
'ism_'
'hotel_'
'highest_'
'denied_'
'considered_'
'ber'
'begin_'
'Y'
'Wall_'
'Research_'
'Far'
'Corp_'
'Cli'
'stee'
'rid'
'reduce_'
'om_'
'murder_'
'end'
'dle'
'cop'
'cast_'
'bed_'
'Press_'
'Mark_'
'LA'
'Ins'
'Hea'
'Ci'
'16'
'stand_'
'signed_'
'rese'
'outl'
'iz'
'immediately_'
'fra'
'ber_'
'ath'
'assets_'
'alone_'
'Ser'
'Johnson_'
' / -- _'
'message_'
'inde'
'benefit_'
'ball'
'army_'
'Mont'
'ub'
'ther_'
'takes_'
'tac'
'street_'
'seem_'
'rel'
'r'
'previously_'
'passed_'
'launched_'
'imm'
'feet_'
'dem'
'candidates_'
'bb'
'addition_'
'Win'
'Sir_'
'14'
'weapons_'
'understand_'
'supporters_'
'sit'
'served_'
'pal'
'opportunity_'
'll'
'l'
'iss'
'hy'
'els_'
'centre_'
'books_'
'Company_'
'According_'
'12'
'ures_'
'strike_'
'starting_'
'save_'
'restr'
'reflect'
'ok'
'natural_'
'lis'
'letter_'
'gro'
'eo'
'driving_'
'cia'
'ced_'
'benefits_'
'arrived_'
'an'
'Ver'
'People_'
'wonder'
'whom_'
'val'
'ten'
'swa'
'store_'
'men'
'emergency_'
'easy_'
'dy'
'cons'
'backed_'
'ask_'
'achieve'
'Peter_'
'Most_'
'v_'
'target_'
'sim'
'seeking_'
'rly_'
'rap'
'pt_'
'owned_'
'ore_'
'ord'
'lose_'
'ei'
'crime_'
'competition_'
'caught_'
'cal_'
'blood_'
'band_'
'aw'
'Manchester_'
'Lan'
'Jer'
'For'
'Federal_'
'ʼs_'
'website_'
'track_'
'tough_'
'th'
'size_'
'nk_'
'ik'
'hang'
'hands_'
'goes_'
'deli'
'ches_'
'carried_'
'bri'
'afternoon_'
'adv'
'Richard_'
'Pre'
'Open_'
'Mike_'
'Cri'
'400_'
'17'
'13'
' ! '
'tt'
'toward_'
'strategy_'
'pit'
'light'
'lawyer_'
'las'
'invest'
'era_'
'disp'
'designed_'
'broke_'
'bit'
'arch'
'Of_'
'Nat'
'Ban'
'watch_'
'users_'
'trade'
'lad'
'ji'
'id'
'foot_'
'faces_'
'ery_'
'die_'
'believes_'
'assa'
'ants_'
'admitted_'
'Wales_'
'Security_'
'Mari'
'Jackson_'
'Comm'
'Bal'
'Ala'
'196'
'zing_'
'wn_'
'ten_'
'seemed_'
'secretary_'
'sco'
'rele'
'programs_'
'population_'
'planning_'
'owners_'
'oni'
'missing_'
'ki_'
'ini'
'greater_'
'ey'
'doctors_'
'department_'
'consumers_'
'civil_'
'beyond_'
'battle_'
'Since_'
'Sho'
'Rev'
'Other_'
'Her_'
'English_'
'vol'
'ui'
'survey_'
'student_'
'stri'
'stra'
'sor'
'sli'
'row_'
'rich_'
'researchers_'
'millions_'
'managed_'
'lect'
'lack_'
'ka_'
'joined_'
'ger_'
'commercial_'
'champion_'
'break'
'box_'
'beginning_'
'announcement_'
'aging_'
'NEW_'
'Gi'
'tournament_'
'tar'
'scen'
'res_'
'raci'
'paper_'
'operating_'
'movement_'
'injuries_'
'ics_'
'flight_'
'domestic_'
'concern_'
'college_'
'block'
'War_'
'Pat'
'Kr'
'Ger'
'Chris_'
'Bay_'
'whi'
'wel'
'vice_'
'streets_'
'slow'
'sites_'
'recovery_'
'our'
'mes_'
'looks_'
'kle'
'gy'
'gin'
'ght'
'ffe'
'fear_'
'eas'
'ear'
'down'
'des'
'chu'
'bus_'
'appear_'
'ana_'
'amid_'
'a'
'Royal_'
'Exp'
'Boston_'
'Bill_'
'An'
'uran'
'union_'
'ud'
'rd'
'ordered_'
'nta'
'lor'
'guilty_'
'else_'
'dict'
'cast'
'bility_'
'bet'
'appeal_'
'ant'
'Pal'
'Cont'
'2000_'
'1'
'written_'
'required_'
'ram'
'nam'
'lt_'
'index_'
'cro'
'compa'
'ail'
'Ol'
'Cor'
'ts'
'ters_'
'sure'
'stopped_'
'sides_'
'rs'
'product_'
'positive_'
'pli'
'offers_'
'offering_'
'mind_'
'ite_'
'ins'
'hel'
'he'
'guide'
'fiscal_'
'del'
'declined_'
'dan'
'cus'
'complete_'
'check'
'bon'
'bel'
'avoid_'
'arti'
'ak'
'ada'
'Law'
'CO'
'36_'
'wo'
'unl'
'software_'
'ros'
'poll_'
'ologi'
'nke'
'jun'
'heavy_'
'happy_'
'ext'
'ensure_'
'dev'
'def'
'ching_'
'arrest_'
'activity_'
'Japanese_'
'Er'
'Don'
'Air_'
'weather_'
'vil'
'ust'
'turn'
'systems_'
'rule_'
'ren'
'pic'
'model_'
'ith'
'fri'
'follow_'
'firms_'
'facing_'
'extra_'
'eth'
'divide'
'dge'
'bol'
'bal'
'X_'
'Treasury_'
'Sen_'
'Red_'
'Nu'
'Invest'
'Bru'
'Bor'
'Australian_'
'yr'
'unre'
'tte'
'standing_'
'sin'
'scene_'
'politics_'
'page_'
'ol_'
'ire_'
'improve_'
'hr'
'holding_'
'green_'
'grant'
'funding_'
'bull'
'below_'
'Sy'
'Not'
'My'
'Martin_'
'Inde'
'Canada_'
'2001_'
', _'
'u'
'settle'
'rati'
'non'
'names_'
'moo'
'mine'
'mi'
'kl'
'illegal_'
'hood_'
'fli'
'fied_'
'expand'
'ered_'
'elect'
'distr'
'Sc'
'During_'
'Christmas_'
'um'
'thre'
'ss'
'signs_'
'ria'
'reas'
'pres'
'partner_'
'oe'
'ngs_'
'maker_'
'ict'
'ical_'
'glo'
'ge'
'finance_'
'expe'
'ero'
'decline_'
'cond'
'class'
'bought_'
'appears_'
'amb'
'ama'
'ala'
'Virginia_'
'SE'
'New'
'NA'
'Inter'
'Asia_'
'65_'
'work'
'uns'
'squ'
'sea_'
'sca'
'safe_'
'rit'
'responsible_'
'rac'
'provided_'
'losing_'
'lin'
'ily_'
'hol'
'gold_'
'filed_'
'equal'
'encourage'
'daily_'
'crack'
'choice_'
'card_'
'Sl'
'Ji'
'All'
'75_'
'vel'
'van'
'ura'
'ue'
'talking_'
'southern_'
'sing'
'short'
'sea'
'resign'
'pretty_'
'head'
'flu_'
'ffi'
'export'
'evening_'
'elected_'
'claim_'
'chan'
'carry_'
'berg_'
'ae'
'King_'
'From_'
'32_'
'uri'
'stor'
'statements_'
'smo'
'sen'
'rival_'
'remained_'
'recall'
'reb'
'rc'
'proposed_'
'programme_'
'press'
'or'
'ones_'
'nia'
'nations_'
'mid_'
'leadership_'
'ita'
'governor_'
'goals_'
'driver_'
'de'
'clo'
'YORK_'
'Van'
'Dea'
'Cou'
'Co_'
'Army_'
'2002_'
'wave'
'va_'
'tt_'
'tour_'
'taxes_'
'serve_'
'radio_'
'quarter'
'orm'
'offs'
'ner'
'kh'
'gun'
'gle'
'ers'
'earn'
'complain'
'bes'
'active_'
'Tre'
'Ireland_'
'IT'
'Coo'
'33_'
' ? '
' ' '
'tain'
'suicide_'
'success'
'spr'
'sch'
'rie'
'relationship_'
'pti'
'paint'
'nst'
'ici'
'hom'
'helping_'
'gre'
'gets_'
'flow'
'floor_'
'finished_'
'fie'
'emp'
'aut'
'ara'
'Western_'
'Sk'
'Sen'
'Meanwhile_'
'Hillary_'
'Day_'
'Al_'
' " '
'vehicle_'
'val_'
'urn'
'tter'
'shooting_'
'scientists_'
'scar'
'ree'
'ral_'
'produce_'
'original_'
'onto_'
'militants_'
'ly'
'loo'
'lon'
'ir_'
'ior_'
'home'
'form'
'edi'
'changed_'
'blog'
'ain'
'Wil'
'Mil'
'Kha'
'First_'
'Bra'
'ville_'
'tic'
'subject_'
'shel'
'seek_'
'rr'
'rif'
're'
'prec'
'practice_'
'plane_'
'pers'
'osi'
'mostly_'
'monitor'
'mental_'
'intelligence_'
'ining_'
'ier_'
'ich'
'hid'
'hed_'
'graph'
'fair'
'emi'
'district_'
'dig'
'depend'
'cks_'
'cc'
'becoming_'
'bear'
'allowing_'
'airport_'
'Williams_'
'Today_'
'Service_'
'Pakistani_'
'ON_'
'Mrs_'
'Institute_'
'Im'
'Hel'
'Carl'
'44_'
'weight_'
'votes_'
'usually_'
'tiny_'
'suit'
'struck_'
'ships_'
'projects_'
'progress_'
'one'
'oa'
'now'
'not'
'normal_'
'nge'
'mea'
'lab'
'imp'
'host_'
'host'
'flu'
'fifth_'
'coverage_'
'com'
'colo'
'calling_'
'attorney_'
'agencies_'
'Those_'
'Sur'
'Rom'
'Report'
'Qa'
'Mag'
'Italy_'
'Iranian_'
'Despite_'
'Communi'
'yer'
'word_'
'ward_'
'usa'
'ups'
'ton'
'suggested_'
'stress'
'see'
'rg'
'ress_'
'protect_'
'prefer'
'posted_'
'plea'
'northern_'
'mobile_'
'missed_'
'mber'
'mail_'
'lation_'
'inf'
'ight_'
'hoo'
'hen'
'fic'
'decade_'
'deaths_'
'crash_'
'contain'
'computer_'
'command'
'auto'
'Kin'
'Justice_'
'Indian_'
'Georgia_'
'Dem'
'Cal'
'western_'
'wearing_'
'uti'
'uses_'
'traditional_'
'showing_'
'ries_'
'reme'
'regard'
'receive_'
'pol'
'places_'
'negotiations_'
'ling'
'like'
'ians_'
'hire_'
'giant_'
'gan'
'favor'
'criminal_'
'contributed_'
'concerned_'
'church_'
'ado'
'Uni'
'Sing'
'San'
'Northern_'
'Fer'
'Dia'
'Cro'
'Comp'
'Cla'
'Chelsea_'
'AN'
'zy_'
'wood_'
'withdraw'
'urged_'
'unemployment_'
'ty'
'transport'
'tele'
'swe'
'speech_'
'send_'
'rop'
'relations_'
'pur'
'primary_'
'pre_'
'piece_'
'package_'
'option_'
'nea'
'motor'
'mari'
'league_'
'lat'
'ire'
'inflation_'
'houses_'
'fired_'
'estate_'
'construction_'
'certainly_'
'brother_'
'att'
'af'
'abo'
'Ty'
'Ph'
'Olympics_'
'Mel'
'IC'
'Gordon_'
'Ge'
'District_'
'Cre'
'Both_'
'Bea'
'Associated_'
'Ash'
'38_'
'tle_'
'stin'
'score_'
'resources_'
'putting_'
'policies_'
'pick_'
'noted_'
'mel'
'limited_'
'launch_'
'join_'
'ible_'
'ibi'
'hing_'
'highly_'
'grand'
'gla'
'fun'
'foot'
'earnings_'
'dangerous_'
'confidence_'
'appeal'
'Vo'
'Qaeda_'
'Chi'
'Carolina_'
'15'
'walk_'
'ula'
'trip'
'sustain'
'sters_'
'sports_'
'shi'
'seconds_'
'ruled_'
'rob'
'push_'
'protection_'
'prospect'
'organization_'
'ons'
'onal_'
'mate'
'kids_'
'io_'
'involve'
'inspect'
'inh'
'gh'
'fresh_'
'exchange_'
'eva'
'ement_'
'developing_'
'cs_'
'bun'
'bou'
'borrow'
'bly_'
'arms_'
'am'
'ah'
'activities_'
'Thi'
'Shan'
'Ky'
'CA'
'tors_'
'tis'
'tea'
'suspect_'
'sus'
'sources_'
'sm_'
'sk'
'rk'
'proposal_'
'paying_'
'nge_'
'negotiat'
'multi'
'life'
'justice_'
'inv'
'ility_'
'gun_'
'fu'
'fle'
'fighters_'
'eh'
'dea'
'creating_'
'carrying_'
'ble'
'argu'
'Wel'
'Tom_'
'Spain_'
'Islam'
'Fr'
'Dan'
'Canadian_'
'Af'
'195'
'£ _'
'wall_'
'ution_'
'ured_'
'unco'
'unc'
'trust_'
'thinking_'
'supply_'
'successful_'
'standards_'
'spokeswoman_'
'sometimes_'
'risks_'
'resi'
'raising_'
'pulled_'
'pping_'
'powerful_'
'particular_'
'outs'
'ously_'
'occasion'
'neighbor'
'mus'
'ministers_'
'main'
'lun'
'lity_'
'it'
'gain_'
'fat'
'faced_'
'disappoint'
'creati'
'count'
'bail'
'ami'
'advantage_'
'accus'
'Sup'
'Sar'
'RI'
'Poli'
'Pl'
'Microsoft_'
'Mi'
'MA'
'Ken'
'FA'
'Board_'
'Baghdad_'
'BA'
'Arm'
'zation_'
'wit'
'wed_'
'tiv'
'suggest_'
'struggling_'
'stal'
'ruling_'
'religious_'
'quit'
'power'
'plus_'
'plant_'
'photograph'
'pet'
'overt'
'ous'
'organ'
'nt'
'log'
'loan_'
'lived_'
'len'
'hir'
'expos'
'ending_'
'ecti'
'demo'
'contr'
'contact_'
'bin'
'apo'
'add_'
'Que'
'Gre'
'Eli'
'Bon'
'46_'
'21'
'xe'
'vehicles_'
'sum'
'spot_'
'refused_'
'reduced_'
'pla'
'material_'
'lt'
'kes_'
'imi'
'hm'
'hi_'
'gree'
'era'
'equipment_'
'ens_'
'enc'
'ema'
'dance_'
'cutting_'
'consider_'
'commit'
'clu'
'capture'
'bea'
'basis_'
'banking_'
'balance_'
'av'
'ase'
'approved_'
'allegations_'
'actions_'
'Will'
'Tw'
'TO'
'Scottish_'
'SA'
'Rea'
'Pla'
'Ham'
'Cas'
'waiting_'
'victim_'
'spread_'
'spoke_'
'spo'
'speak_'
'serving_'
'seat_'
'regional_'
'por'
'participa'
'ora'
'ond'
'nor_'
'nne'
'nda'
'mode'
'mme'
'lk'
'learn_'
'language_'
'kin'
'island_'
'hy_'
'gne'
'gall'
'ees_'
'dog_'
'develop_'
'comments_'
'batter'
'ard'
'Three_'
'Sol'
'ST'
'RA'
'Pol'
'Paris_'
'Palestinian_'
'Kan'
'Jac'
'IS'
'II_'
'Free'
'Chief_'
' [ _'
'ysi'
'vision_'
'twice_'
'treated_'
'stimulus_'
'stan'
'ssi'
'science_'
'rol'
'roa'
'res'
'reading_'
'polls_'
'poli'
'oun'
'orn'
'ners_'
'nel_'
'necessary_'
'mort'
'mention'
'lawmakers_'
'ivi'
'idents_'
'failure_'
'extra'
'every'
'eve'
'earth'
'discovered_'
'deter'
'critical_'
'conv'
'check_'
'bomb_'
'award_'
'ate'
'ana'
'Ve'
'Stra'
'Ram'
'Our_'
'Olympic_'
'North'
'MI'
'HI'
'Financial_'
'yon'
'track'
'tory_'
'temp'
'sy'
'stores_'
'stati'
'shown_'
'shoot'
'sh'
'section_'
'reality_'
'pun'
'province_'
'prob'
'pair_'
'open'
'odd'
'meant_'
'lth'
'largely_'
'keeping_'
'hon'
'guarantee'
'govern'
'fit'
'explain'
'erg'
'entire_'
'effective_'
'dil'
'culture_'
'contest'
'clearly_'
'audience_'
'answer_'
'ame'
'ale'
'agree_'
'accept_'
'Spe'
'Muslim_'
'Liverpool_'
'High_'
'Fl'
'Energy_'
'Dep'
'Cat'
'Another_'
'tou'
'throughout_'
'tely_'
'surviv'
'summit_'
'ro_'
'request_'
'rely_'
'reform_'
'pull'
'miss'
'measure_'
'marriage_'
'lim'
'leg'
'jury_'
'individual_'
'harm'
'famous_'
'economist'
'dge_'
'completed_'
'cities_'
'cil'
'bus'
'bru'
'asse'
'Mic'
'Mah'
'Islamic_'
'Green_'
'Good'
'Foreign_'
'CBS_'
'Barr'
'AT'
'42_'
' , '
' " ) '
'� '
'wait_'
'ut'
'type_'
'towards_'
'seed'
'revealed_'
'reserve'
'pa_'
'ory_'
'mod'
'lled_'
'lawyers_'
'ito'
'install'
'image_'
'identified_'
'entr'
'ends_'
'documents_'
'doctor_'
'developed_'
'det'
'delay'
'challenge_'
'carbon_'
'behavio'
'baby_'
'attracti'
'ato'
'Yet_'
'Tro'
'Sp'
'Q'
'Motor'
'Jose'
'Joe_'
'Big_'
'About_'
'views_'
'via_'
'unable_'
'train_'
'scheme_'
'retr'
'rch'
'profits_'
'professional_'
'presence_'
'night'
'nearby_'
'mountain'
'modern_'
'lou'
'larger_'
'ized_'
'indu'
'fee_'
'dar'
'couldn_'
'bia'
'armed_'
'ace_'
'Supreme_'
'Sim'
'Ron'
'Is'
'Gla'
'Camp'
'Black'
'BO'
'48_'
'warning_'
'vin'
'threatened_'
'tall'
'suspected_'
'semi'
'repl'
'remaining_'
'regular_'
'refu'
'prepar'
'pers_'
'nom'
'ls'
'line'
'investigate'
'hear_'
'fly_'
'fair_'
'fact'
'existing_'
'discuss_'
'directly_'
'deficit_'
'buying_'
'ably_'
'Thomas_'
'Sec'
'Rob'
'Red'
'RE'
'Premier_'
'Lord_'
'Korean_'
'Has'
'Geo'
'ER'
'Ac'
'30'
'yd'
'ump'
'top'
'tests_'
'teachers_'
'supported_'
'strik'
'status_'
'speed_'
'sou'
'ske'
'separat'
'seeing_'
'scr'
'rri'
'rem'
'register'
'reg'
'pe_'
'oth'
'massive_'
'jump'
'inte'
'insist'
'influence_'
'heads_'
'handl'
'handed_'
'finding_'
'falling_'
'eye_'
'environment_'
'eni'
'emissions_'
'ease_'
'diss'
'detect'
'dam'
'cross'
'crea'
'convicted_'
'commission_'
'adding_'
'TA'
'Rich'
'Part'
'LO'
'GM_'
'Dun'
'Dav'
'Ce'
'Andrew_'
'xic'
'various_'
'twi'
'trend'
'stretch'
'stic'
'spot'
'speaking_'
'sm'
'sb'
'rush'
'redi'
'records_'
'rebound'
'proper'
'process'
'payments_'
'obtain'
'nds_'
'int'
'industrial_'
'immediate_'
'fine_'
'eventually_'
'ern'
'equity_'
'engage'
'decide_'
'connect'
'climb'
'capab'
'authority_'
'affected_'
'account'
'Ye'
'Sto'
'Spa'
'Nov'
'Lee_'
'GMT_'
'Fed_'
'DE'
'College_'
'Cent'
'CI'
'www_'
'var'
'van_'
'tat'
'tail'
'suffering_'
'storm_'
'slightly_'
'separate_'
'rl'
'protests_'
'protest_'
'prote'
'produc'
'pick'
'orc'
'notice'
'nger_'
'nch'
'laws_'
'ku'
'ks'
'items_'
'increasing_'
'ill_'
'gli'
'formal'
'eastern_'
'dru'
'defeat_'
'crowd_'
'collect'
'coast_'
'closing_'
'bil'
'bar_'
'bac'
'ay'
'ann'
'allows_'
'adopt'
'adi'
'Wo'
'Wat'
'Tam'
'Ros'
'Pan'
'Ministry_'
'McC'
'Just_'
'Hollywood_'
'Hav'
'Hal'
'Guard'
'Every'
'Es'
'ES'
'Bol'
'Bla'
'49_'
'150_'
' ? "'
' " ( _'
'ya_'
'wri'
'wouldn_'
'typical'
'traffic_'
'thu'
'str'
'steps_'
'society_'
'shots_'
'sexual_'
'scale_'
'rv'
'responsibility_'
'proceed'
'pot'
'politicians_'
'peri'
'panel_'
'nk'
'new'
'mem'
'long'
'lac'
'knows_'
'kill'
'joint_'
'involving_'
'gat'
'exi'
'deploy'
'continues_'
'cancel'
'boys_'
'bonus'
'az'
'arr'
'aide'
'Ze'
'Up'
'Their_'
'Ric'
'Met'
'Mai'
'Liber'
'GA'
'Elect'
'Com'
'Brad'
'Apple_'
'51_'
'34_'
'' _'
' " -- _'
'uty_'
'uring_'
'update'
'unit_'
'truc'
'time'
'tie_'
'thi'
'theat'
'symp'
'stars_'
'spring_'
'slow_'
'signal'
'shr'
'screen'
'rescue_'
'provides_'
'politic'
'plan'
'pay'
'patient_'
'path'
'park_'
'owe'
'occup'
'nut'
'kel'
'kar'
'holiday_'
'highlight'
'gha'
'generation_'
'gene'
'function'
'free'
'flood'
'flee'
'fan'
'exist'
'exam'
'ek_'
'drivers_'
'drew_'
'dist'
'constitution'
'color'
'cel'
'asking_'
'aimed_'
'agent_'
'Op'
'Asian_'
'Also_'
'99_'
' ( $ _'
'é'
'tl'
'tip'
'teach'
'syn'
'survive'
'specific_'
'severe_'
'sel'
'rock_'
'publish'
'produced_'
'pounds_'
'perfect_'
'passengers_'
'of'
'marketing_'
'listen'
'linked_'
'journalist'
'icien'
'hea'
'gue_'
'fellow_'
'featur'
'fas'
'eno'
'ede'
'earned_'
'duc'
'doubt_'
'dom_'
'dal'
'criticism_'
'county_'
'citi'
'buildings_'
'begun_'
'alo'
'You'
'West'
'Star'
'Spanish_'
'SE_'
'Palin_'
'Nations_'
'NT'
'Lar'
'Italian_'
'800_'
'39_'
'weigh'
'valu'
'tun'
'sic'
'shop_'
'sent'
'rent'
'rally_'
'proposals_'
'prevent'
'placed_'
'physical_'
'ows_'
'nit'
'nav'
'mistake'
'length'
'investigating_'
'insisted_'
'ill'
'hn'
'hero'
'fraud_'
'focused_'
'fil'
'expenses_'
'drink'
'design_'
'delivery_'
'cross_'
'cover'
'coun'
'core_'
'contract'
'combined_'
'challeng'
'bench'
'aware_'
'argued_'
'ande'
'alt'
'ack'
'abuse_'
'Under_'
'Ohio_'
'May'
'Hall_'
'Gri'
'Eve'
'Der'
'Berna'
'Ant'
'Alb'
'55_'
'whe'
'view'
'utt'
'univers'
'tin'
'tent'
'sought_'
'shortly_'
'seriously_'
'sentence_'
'secure_'
'replace_'
'pu'
'prosecutors_'
'ordinary_'
'ni_'
'mac'
'investigators_'
'ignor'
'hurt_'
'happen_'
'gus'
'gay_'
'gained_'
'fig'
'fees_'
'fears_'
'fashion_'
'experi'
'ew'
'ens'
'enr'
'eld'
'determined_'
'detail'
'consi'
'compo'
'clinic'
'cked_'
'cin'
'celebrate'
'camp_'
'arrange'
'ald_'
'Ray'
'ME'
'Lam'
'Jersey_'
'Jeff'
'Hospital_'
'Fla'
'Cle'
'Cameron_'
'Av'
'194'
'writing_'
'terrorist_'
'terrorism_'
'surgery_'
'struct'
'sted_'
'sponsor'
'sons_'
'slo'
'ski_'
'rh'
'rgi'
'promote'
'pper'
'pass'
'older_'
'ok_'
'noti'
'nie_'
'magazine_'
'lla'
'kill_'
'ize'
'internet_'
'interests_'
'ima'
'ice'
'hun'
'hits_'
'hill'
'governments_'
'gives_'
'finish_'
'favorite_'
'explor'
'exe'
'environmental_'
'egg'
'ee_'
'direct'
'compe'
'clean_'
'cit'
'block_'
'bell'
'bas'
'art'
'alli'
'accounts_'
'aba'
'Still_'
'ND'
'Mal'
'Charles_'
'Cel'
'Capital_'
'BST_'
'Authorit'
'AI'
'43_'
'41_'
' ] _'
'write_'
'wheel'
'urg'
'unders'
'telephone_'
'tche'
'stronge'
'sound_'
'simple_'
'select'
'sad'
'require_'
'remember_'
'relatively_'
'rei'
'pub'
'poo'
'please'
'playoff'
'picture_'
'phi'
'ph'
'parti'
'pace_'
'ow'
'ose'
'novel'
'mean'
'mand'
'makers_'
'limit_'
'kers_'
'ission'
'increasingly_'
'hunt'
'horse'
'hoping_'
'honor'
'ga_'
'fir'
'female_'
'enta'
'ences_'
'ena'
'educat'
'eco'
'easily_'
'dat'
'convention'
'continuing_'
'compr'
'committed_'
'clients_'
'cell_'
'c'
'bombing'
'awa'
'ates_'
'analyst_'
'advertising_'
'Tiger'
'Mill'
'Let'
'Fri'
'Cur'
'Central_'
'Brook'
'40'
'37_'
'za_'
'wounded_'
'waste'
'vit'
'vers_'
'ury_'
'trac'
'tial'
'subsidi'
'stocks_'
'stem'
'spin'
'sort_'
'sky_'
'remind'
'rein'
'recorded_'
'react'
'pt'
'present'
'prepared_'
'pose'
'parliament_'
'papers_'
'obs'
'mp_'
'married_'
'ick'
'hot'
'helm'
'hard'
'geo'
'fur'
'fe_'
'enter'
'enjoy'
'draw_'
'displa'
'defende'
'control'
'considering_'
'cing_'
'blu'
'bles'
'attacked_'
'accident_'
'Val'
'Tal'
'Stud'
'Spi'
'Son'
'Right'
'NC'
'Loc'
'Lib'
'Jam'
'Its_'
'Instead_'
'Gov_'
'Bir'
'Bet'
'BE'
'App'
'Any'
'Adv'
'voted_'
'veri'
'tto'
'solution_'
'sl'
'setting_'
'secret_'
'scoring_'
'rse'
'representative'
'referr'
'recon'
'recognize'
'ration_'
'rapid'
'pred'
'oll'
'mar_'
'maintain_'
'lying_'
'llow'
'list'
'label'
'keep'
'interview'
'implement'
'ified_'
'helicopter'
'girls_'
'generally_'
'gas'
'garden'
'forecast_'
'fit_'
'entered_'
'eat_'
'discussion'
'dial'
'defe'
'deals_'
'dark_'
'crew_'
'conduct_'
'conc'
'cle'
'chas'
'catch'
'bing_'
'ballot'
'attend'
'assist'
'asp'
'ak_'
'Whit'
'Swi'
'Road_'
'NH'
'Lei'
'Kevin_'
'Haiti'
'HO'
'Fina'
'Ec'
'Dec'
'Barc'
'wind_'
'warm'
'ume'
'trouble'
'tary_'
'surprise_'
'stood_'
'song_'
'show'
'rre'
'reve'
'reasons_'
'pson_'
'prop'
'pilot'
'pension'
'peak'
'pea'
'ost'
'occurred_'
'nci'
'nces_'
'multiple_'
'mu'
'meetings_'
'mba'
'mate_'
'lp'
'lah_'
'join'
'ise'
'identi'
'hum'
'gon'
'fortun'
'flights_'
'flag'
'fix'
'executives_'
'excit'
'eu'
'donat'
'depress'
'ceremony_'
'cautio'
'brea'
'bottom_'
'ash'
'aro'
'answer'
'alle'
'William_'
'Why_'
'Thom'
'Terr'
'Sad'
'Michigan_'
'Merc'
'Mart'
'LL'
'Gil'
'Ford_'
'Exchange_'
'Chrysler_'
'Bat'
'Agency_'
'Act'
'22'
'zz'
'writers_'
'wre'
'wis'
'widely_'
'wat'
'voice_'
'university_'
'trouble_'
'tow'
'tit'
'tical'
'tee'
'techn'
'tape'
'stop'
'stone_'
'sen_'
'sa_'
'restaurant_'
'regi'
'pra'
'park'
'ony_'
'oli'
'offe'
'o'
'note_'
'nan'
'moment'
'mer_'
'ment'
'medal'
'los'
'lo_'
'ised_'
'headed_'
'hall_'
'guest'
'guard_'
'grew_'
'goods_'
'feeling_'
'euros_'
'embr'
'dramatic'
'dly_'
'ctu'
'cre'
'cas'
'board'
'blue_'
'approval_'
'aircraft_'
'accom'
'Tony_'
'Tha'
'TE'
'Prince_'
'NO'
'Middle_'
'Leban'
'Hill_'
'Gran'
'Fred'
'Facebook_'
'Egypt'
'BA_'
'At'
'ys'
'warming_'
'wards_'
'vant'
'tru'
'tradition'
'supplies_'
'rocket'
'ril'
'rela'
'reco'
'ps'
'providing_'
'profile_'
'pro_'
'popula'
'phones_'
'nis_'
'mond_'
'maybe_'
'judg'
'introduced_'
'introduc'
'infl'
'impl'
'hou'
'hat'
'ham'
'grown_'
'fish_'
'findings_'
'expressed_'
'esca'
'disclos'
'difference_'
'diagnos'
'covered_'
'correct'
'corporate_'
'corp'
'conta'
'commu'
'commitment_'
'colla'
'capacity_'
'birth_'
'bigger_'
'ars_'
'appoint'
'anyw'
'annu'
'aker'
'Tele'
'Syria'
'Swiss_'
'Somali'
'Sco'
'Pres'
'Pop'
'Ok'
'Nea'
'NBC_'
'Mit'
'Manhattan_'
'Irish_'
'Gaza_'
'Ei'
'Do_'
'Brit'
'Bac'
'Ass'
'Arab_'
'50'
'.-_'
'wick'
'wal'
'wai'
'uth'
'ugh'
'ually_'
'studies_'
'stake_'
'stabili'
'sport_'
'sound'
'snow_'
'sme'
'sle'
'singer_'
'shape'
'sentenced_'
'rise'
'repu'
'rare_'
'pushed_'
'purchase_'
'percentage_'
'pain_'
'ound_'
'orders_'
'offices_'
'nte'
'mot'
'lf_'
'ific'
'ger'
'gains_'
'fewer_'
'faste'
'expectations_'
'emerged_'
'compos'
'closer_'
'circu'
'celebrati'
'cce'
'causing_'
'ca_'
'attract'
'assi'
'aries_'
'apparently_'
'allegedly_'
'alist'
'adve'
'abe'
'Us'
'Toyota_'
'Stock'
'Star_'
'Sept_'
'Philip'
'Ob'
'Nev'
'NY'
'Marc'
'LI'
'Kennedy_'
'Id'
'IN'
'Fire'
'Charl'
'CC'
'Bran'
'younger_'
'wish'
'weak_'
'urce'
'traine'
'total'
'tank'
'subst'
'stud'
'shareholders_'
'score'
'retired_'
'rest'
'promis'
'print_'
'possibility_'
'metr'
'mbl'
'hl'
'grow_'
'ghe'
'farm'
'factor'
'eyes_'
'exp'
'elle'
'ega'
'driven_'
'dish'
'decisions_'
'consult'
'conservative_'
'chest'
'careful'
'broadcast_'
'boost_'
'bills_'
'ben'
'barrel_'
'bare'
'bag'
'awar'
'assault_'
'aren_'
'animals_'
'allo'
'agen'
'Vic'
'Th'
'Steven'
'Steve_'
'Ren'
'Real'
'Plan'
'Ope'
'Ker'
'Hor'
'Hen'
'Haw'
'HA'
'Flo'
'Detroit_'
'AR'
'?'
'58_'
'54_'
'zen_'
'writer_'
'worldwide_'
'weake'
'wage'
'vez_'
'umb'
'ther'
'tage_'
'sue'
'strong'
'ston'
'spark'
'smoke'
'slid'
'ska'
'side'
'resta'
'recommend'
'plays_'
'pes'
'penalty_'
'ot_'
'orti'
'opposed_'
'opera'
'news'
'nde'
'nature_'
'ming'
'mind'
'memor'
'master'
'marked_'
'innings_'
'initial_'
'inch'
'im'
'household'
'hau'
'happ'
'gir'
'foo'
'exh'
'eur'
'engine'
'dress'
'dozens_'
'dogs_'
'determine_'
'definit'
'defence_'
'cott'
'corruption_'
'complex_'
'commo'
'coalition_'
'cells_'
'burn'
'broken_'
'bodies_'
'bankruptcy_'
'any'
'and'
'anc'
'album_'
'agree'
'admit'
'actor_'
'UN_'
'Trans'
'Tibet'
'Ryan_'
'Rei'
'NE'
'MPs_'
'Lea'
'Home_'
'Fin'
'Fal'
'Defense_'
'Dal'
'Boo'
'90'
'250_'
'yield'
'yed_'
'wound'
'winter_'
'villa'
'trail'
'tale'
'swim'
'sug'
'some'
'sions_'
'shou'
'shing_'
'seats_'
'reo'
'regula'
'radi'
'publicly_'
'professor_'
'prise'
'point'
'nl'
'ness'
'mph'
'lie_'
'learned_'
'lap'
'jur'
'iste'
'ior'
'intended_'
'ilit'
'gna'
'fund'
'financ'
'fai'
'facilities_'
'extensi'
'engineer'
'enda'
'effects_'
'direct_'
'device_'
'custody_'
'currency_'
'cook'
'compete'
'comb'
'clos'
'civilian_'
'championship_'
'cate'
'call'
'brin'
'appearance_'
'amp'
'alternative_'
'alcohol_'
'age'
'Some'
'Public_'
'Murray_'
'Lit'
'Jen'
'Jack_'
'Island_'
'Fort'
'Dam'
'Cy'
'CD'
'Bes'
'Ang'
'Administration_'
'AM'
'; '
'47_'
'wood'
'wart'
'walked_'
'voting_'
'upon_'
'truth_'
'trigger'
'subs'
'sto'
'sper'
'spec'
'smaller_'
'runner'
'rth'
'rings_'
'rep'
'reli'
'rating_'
'priva'
'partners_'
'oppo'
'opi'
'odi'
'mist'
'lot'
'liquid'
'interven'
'institutions_'
'improved_'
'idat'
'hot_'
'heri'
'gift'
'fun_'
'fte'
'forg'
'fish'
'fed'
'fare_'
'far'
'failing_'
'ex_'
'evi'
'ech'
'don'
'divers'
'dh'
'describe'
'dent_'
'declared_'
'dd'
'crude_'
'critics_'
'coup'
'count_'
'confi'
'commander_'
'char'
'belief'
'autom'
'aren'
'animal_'
'anci'
'airline_'
'Tur'
'Thai'
'Rose'
'RB'
'Matt'
'Kong_'
'Force_'
'FBI_'
'Cos'
'Citi'
'Brazil_'
'Award'
'Arizona_'
'watching_'
'ware_'
'vor'
'unif'
'tter_'
'thou'
'terri'
'telling_'
'ssa'
'special'
'sec'
'search'
'rupt'
'run'
'root'
'roof'
'rejected_'
'refus'
'reform'
'quen'
'quake_'
'punish'
'provision'
'positions_'
'pect'
'ort'
'observe'
'ncy_'
'mbled'
'liz'
'lift'
'lies'
'ko_'
'int_'
'impa'
'iling_'
'icit'
'historic_'
'haven_'
'gal'
'frustrat'
'films_'
'feature_'
'ering_'
'ell'
'dor_'
'distribut'
'discuss'
'discover'
'ding'
'dim'
'di_'
'democracy_'
'confirm'
'conclude'
'burn_'
'brief'
'breaking_'
'brain_'
'boy'
'blast'
'author_'
'ani_'
'ands_'
'ai_'
'Was'
'Scott_'
'Pas'
'PM'
'Oc'
'Miss'
'Marine'
'Liv'
'Life_'
'Iowa_'
'Hou'
'Green'
'DA'
'Bob'
'Ave'
'78'
'2011_'
'0s_'
'worse_'
'wealth_'
'visitors_'
'village_'
'ugg'
'trib'
'touchdown'
'targets_'
'tal'
'switch'
'spirit'
'speak'
'shoe'
'set'
'session_'
'savings_'
'roy'
'rou'
'riv'
'rity_'
'receiving_'
'protesters_'
'priorit'
'princ'
'pou'
'plot'
'personal'
'ova'
'oon'
'omi'
'ntu'
'nto'
'kick'
'inspir'
'ingly_'
'increases_'
'ience'
'icate'
'ic'
'hed'
'gged_'
'generate'
'gel'
'gam'
'folk'
'ffer'
'fam'
'fall'
'factors_'
'extremely_'
'estimates_'
'enjoy_'
'eg'
'eff'
'duty_'
'draft_'
'dol'
'divi'
'deri'
'degree_'
'date'
'convince'
'contracts_'
'connection_'
'complaints_'
'channel'
'carrier'
'butt'
'bs'
'bad'
'assembl'
'apartment_'
'aine'
'after'
'Swa'
'Stephen_'
'Stan'
'Roman'
'Reg'
'Q_'
'Pie'
'Philli'
'Philadelphia_'
'Organi'
'Nan'
'Mul'
'Moscow_'
'MO'
'Hil'
'Hami'
'Grand_'
'Euro'
'Edi'
'Earlier_'
'Don_'
'Before_'
'1980'
'0m_'
' : / / _'
'xt'
'willing_'
'virus_'
'vet'
'vaca'
'urs'
'uit'
'teenage'
'suspended_'
'suggests_'
'succeed'
'ssin'
'senator_'
'rooms_'
'reportedly_'
'renew'
'refere'
'recover'
'rain'
'quick_'
'plat'
'pitche'
'picked_'
'phe'
'nse'
'neu'
'nce'
'mul'
'mpe'
'mone'
'met'
'managers_'
'lega'
'lated_'
'knock'
'inform'
'iam'
'herself_'
'han_'
'gue'
'grade_'
'gent'
'gate_'
'gage'
'ety_'
'drag'
'division_'
'depart'
'crimes_'
'contribution'
'communities_'
'classic'
'chai'
'ces'
'captain_'
'blo'
'ator'
'arts_'
'artist_'
'ads_'
'absolute'
'Work'
'Wood'
'Reserve_'
'Nic'
'Mars'
'Len'
'Lad'
'Jim_'
'IR'
'Gui'
'Gor'
'Four_'
'Easter'
'Cong'
'Conference_'
'Cl'
'Christi'
'Angel'
'72'
'59_'
' ..'
'ws'
'witnesse'
'unlikely_'
'ulati'
'tribu'
'ting'
'tight_'
'sudden'
'stations_'
'solid'
'sixth_'
'sacr'
'rti'
'round'
'rib'
'result'
'respect_'
'reso'
'replac'
'rence_'
'rebels_'
'rail'
'prove_'
'presented_'
'pregnan'
'permanent'
'owns_'
'overh'
'outr'
'organisation'
'options_'
'oph'
'none_'
'nent_'
'method'
'mble'
'lte'
'lobby'
'lined_'
'impose'
'images_'
'ica'
'http_'
'fuel'
'fou'
'finals_'
'exten'
'err'
'epi'
'element'
'eal'
'drove_'
'drop'
'dred'
'dozen_'
'diploma'
'deputy_'
'ctic'
'credit'
'cooperat'
'cool'
'containe'
'commen'
'colleagues_'
'clean'
'cab'
'busi'
'bringing_'
'blamed_'
'announce'
'acre'
'With'
'VE'
'Speak'
'Senator_'
'Mur'
'Medical_'
'Like_'
'Latin'
'Houston_'
'Glo'
'Democrat_'
'Cra'
'Carr'
'Bud'
'Blair_'
'Ben_'
'Alexand'
'é_'
'volume'
'visiting_'
'unde'
'uma'
'ulate'
'ude'
'tzer'
'trick'
'touch'
'tm'
'theor'
'tension'
'tell'
'strength_'
'stic_'
'stage'
'spon'
'species_'
'shirt'
'sect'
'seasons_'
'sanctions_'
'rot'
'rivals_'
'retirement_'
'replaced_'
'relief_'
'recruit'
'rece'
'pret'
'physic'
'phy_'
'ough_'
'oral_'
'op_'
'neg'
'nch_'
'nas'
'mour'
'mount'
'mix'
'mani'
'listed_'
'lending_'
'leg_'
'law'
'lands_'
'jack'
'ium_'
'iting_'
'interi'
'interested_'
'integrat'
'inco'
'ili'
'ideas_'
'habi'
'guards_'
'get'
'fen'
'expects_'
'examine'
'exa'
'ess'
'enable'
'empt'
'eag'
'diti'
'declar'
'debut_'
'convert'
'controversial_'
'contin'
'conflict_'
'comple'
'comp'
'clubs_'
'closely_'
'charity_'
'bath'
'ambitio'
'accepted_'
'Villa'
'Tea'
'Russ'
'Roo'
'Pacific_'
'PC'
'Morgan_'
'Mid'
'Mem'
'Juli'
'Hamas_'
'Gall'
'Francisco_'
'Fran'
'Ear'
'Cop'
'Cab'
'Broad'
'Alex'
'600_'
'57_'
'52_'
' ( £ _'
'zo'
'ycl'
'wild'
'ural_'
'upt'
'turning_'
'transform'
'teen'
'support'
'strate'
'shopping_'
'shm'
'sharp'
'sex'
'serve'
'sei'
'secur'
'scho'
'rog'
'riot'
'ri_'
'rey_'
'revis'
'relie'
'ref'
'rect'
'rb'
'rat'
'purs'
'portra'
'plenty_'
'perce'
'overw'
'os'
'operator'
'olin'
'negative_'
'mother'
'meters_'
'memori'
'manufacturer'
'maintain'
'lowest_'
'lm'
'litera'
'lin_'
'limi'
'lie'
'legislat'
'ional_'
'initially_'
'ines_'
'import'
'ils_'
'ille'
'iev'
'hoped_'
'hair_'
'gues'
'goa'
'gio'
'gger'
'founder_'
'forge'
'flat_'
'filled_'
'feel'
'favour'
'facility_'
'explo'
'execut'
'exception'
'ented_'
'ensi'
'endorse'
'digital_'
'devo'
'conducted_'
'collapse_'
'ciate'
'character'
'buyers_'
'breath'
'bound'
'boat_'
'boa'
'blin'
'bird'
'basket'
'atr'
'ass'
'are'
'ans'
'Yu'
'Tho'
'TI'
'Sun'
'Str'
'South'
'Rel'
'Prote'
'Or_'
'Nob'
'Nick'
'MS'
'Kir'
'Kim_'
'Jane'
'Great_'
'Gen_'
'Fore'
'Fed'
'Det'
'Des'
'Const'
'Colombia'
'Beck'
'Arc'
'AL'
'85_'
'64_'
'56_'
'visi'
'tum'
'touch_'
'tie'
'throw'
'testing_'
'tenan'
'temperature'
'tear'
'taxpayer'
'strip'
'stories_'
'stole'
'songs_'
'son'
'smart'
'signi'
'shoulder'
'screen_'
'sburg'
'route_'
'ridi'
'ricul'
'reveal'
'retail_'
'repair'
'ray'
'rant'
'rang'
'pul'
'psy'
'primari'
'plants_'
'passing_'
'oria'
'orar'
'old'
'nes'
'migra'
'mass_'
'logical_'
'load'
'lling_'
'liber'
'kins_'
'judges_'
'jet'
'jail_'
'ition_'
'itia'
'insul'
'han'
'gor'
'glass'
'gie'
'ggin'
'established_'
'error'
'entry_'
'employment_'
'elo'
'ege'
'direction_'
'design'
'cycl'
'contribut'
'consum'
'condemn'
'come'
'citizens_'
'cher_'
'changing_'
'celebrit'
'cart'
'boost'
'bis'
'assistant_'
'argument_'
'approache'
'appointed_'
'apologi'
'anth'
'ano'
'ance'
'aggressive'
'agents_'
'afford_'
'administ'
'aci'
'abr'
'Vie'
'Test'
'Social'
'Services_'
'Rock_'
'Post_'
'PE'
'Mos'
'Mat'
'Massachusetts_'
'Joh'
'Inf'
'Illinois_'
'Gro'
'God_'
'GOP_'
'Dom'
'Argentin'
'Act_'
'AC'
'ABC_'
'23'
'201'
'1970'
'"'
'yes_'
'wake_'
'vita'
'vely_'
'usi'
'unfo'
'tures_'
'truck_'
'touris'
'tch_'
'suspen'
'suffer'
'spe'
'soci'
'settlement_'
'seized_'
'schedule'
'rum'
'reporting_'
'quo'
'quiet'
'prosecut'
'prize'
'pipe'
'pictures_'
'ph_'
'peace'
'nal_'
'mut'
'mma'
'mere'
'mainly_'
'logy_'
'link_'
'lay_'
'kit'
'influen'
'immigration_'
'ias'
'hop_'
'help'
'hei'
'heavily_'
'hasn_'
'guard'
'gener'
'frame'
'forecast'
'ficial'
'features_'
'ez_'
'euro_'
'emphasi'
'eighth_'
'double'
'doc'
'disco'
'deliver_'
'cy'
'court'
'controlled_'
'conservati'
'clash'
'civilians_'
'cine'
'cheer'
'cation'
'brid'
'brand_'
'bottle'
'bike'
'bee'
'atic'
'arriv'
'ards'
'admi'
'Wor'
'Though_'
'Six'
'Sand'
'NG'
'NATO_'
'Men'
'McCa'
'Mass'
'Las'
'Kell'
'Jewish_'
'Hong_'
'Heat'
'Gua'
'Doug'
'Diego_'
'Cru'
'Char'
'Buc'
'Black_'
'Among_'
'Ali_'
'Abdul'
': _'
'35'
' ! !'
'wra'
'wl'
'walking_'
'vert'
'unusual_'
'unit'
'underw'
'ttle_'
'tion'
'thri'
'tec'
'tabl'
'sup'
'specif'
'slee'
'sg'
'sens'
'seas'
'scru'
'sail'
'safe'
'ructi'
'ris_'
'responded_'
'ren_'
'removed_'
'reci'
'ranked_'
'rain_'
'rad'
'pric'
'potentially_'
'pop'
'ped'
'ning'
'narrow'
'moral'
'medic'
'lv'
'lus'
'logist'
'locat'
'lica'
'iona'
'inquiry_'
'ink'
'individuals_'
'improvement'
'homer'
'gea'
'fro'
'frequent'
'freedom_'
'forms_'
'flying_'
'fallen_'
'experienced_'
'expensive_'
'ett'
'eer'
'dism'
'crucial_'
'coast'
'chen'
'bab'
'auction'
'attend_'
'attack'
'ators_'
'ative_'
'assistance_'
'ang_'
'alter'
'advise'
'Woods_'
'Trust_'
'Tour_'
'Super_'
'Silv'
'Roger'
'Patri'
'Pac'
'Over_'
'Oscar'
'Moham'
'Miami_'
'Metro'
'Medi'
'Med'
'Louis_'
'Leo'
'Jon'
'His'
'Dod'
'Director'
'Def'
'Conne'
'Business_'
'Brian_'
'Bill'
'Bh'
'Bang'
'Atlantic_'
'Allen_'
'Add'
'AF'
'69'
'193'
'zer'
'yw'
'yan'
'wear_'
'voca'
'venture'
'units_'
'uf'
'toll'
'tied_'
'test'
'temporary_'
'targeted_'
'tali'
'suit_'
'strang'
'stead'
'square_'
'shock'
'scra'
'rom'
'retain'
'rer'
'relatives_'
'race'
'pup'
'pois'
'platform_'
'pirate'
'pil'
'permit'
'passes_'
'ox'
'opposi'
'opinion_'
'nurse'
'ntl'
'nted_'
'north'
'neighborhood_'
'movies_'
'mete'
'metal'
'lities_'
'lawsuit_'
'laugh'
'lai'
'kness_'
'invent'
'institut'
'ha_'
'gr'
'ghte'
'gang_'
'fine'
'ffo'
'farm_'
'familiar_'
'fac'
'exercise_'
'excess'
'excellen'
'estimate_'
'equi'
'enter_'
'electricity_'
'dealer'
'danger_'
'coo'
'conversation'
'content_'
'competitive_'
'cold_'
'cie'
'chers_'
'challenges_'
'brand'
'book'
'blic'
'birth'
'bin_'
'bic'
'beat'
'ax'
'aud'
'ator_'
'ale_'
'affect_'
'advice_'
'adu'
'abs'
'Wis'
'Squa'
'Sid'
'Progr'
'Ow'
'Once_'
'News'
'Neil'
'Mir'
'Jr_'
'Journal_'
'FO'
'Et'
'Church_'
'Cardi'
'Alaska_'
'AA'
'74'
'62_'
'2012_'
' % '
'with'
'wine_'
'welcome_'
'wd'
'vast_'
'unsu'
'unp'
'ught'
'uce'
'tria'
'transfer_'
'tool'
'tne'
'tig'
'tickets_'
'ti_'
'suspects_'
'sting_'
'state'
'stand'
'shift_'
'sharing_'
'request'
'reh'
'regulator'
'pump'
'produce'
'possibly_'
'plain'
'pid'
'past'
'overl'
'ours'
'nis'
'mi_'
'magn'
'mad'
'license'
'kni'
'kn'
'kin_'
'iti'
'isti'
'isor'
'isin'
'ian'
'horr'
'hem'
'healthcare_'
'hamm'
'green'
'grand_'
'grade'
'gather'
'fores'
'forcing_'
'filing'
'fear'
'enn'
'emerging_'
'embar'
'ein'
'dispute'
'disappear'
'designer'
'demands_'
'defi'
'dde'
'cultural_'
'cou'
'consecutive_'
'computers_'
'cket_'
'cken'
'cies_'
'cable_'
'by'
'broker'
'broade'
'beha'
'barri'
'atives_'
'arm_'
'arian_'
'ama_'
'airlines_'
'acknowledged_'
'abus'
'Zu'
'Wr'
'Wilson_'
'UC'
'Tehran_'
'Show_'
'Saudi_'
'Rock'
'Rio_'
'Queen_'
'Peters'
'On'
'Officer'
'Musharraf_'
'Lead'
'High'
'Harris'
'Fund'
'Foundation_'
'Foo'
'Dubai_'
'Davis_'
'Christ'
'Berl'
'Barb'
'Atlanta_'
') '
' € _'
'vulnerab'
'vati'
'urgen'
'understood_'
'ular_'
'transaction'
'tories_'
'tho'
'there'
'strict'
'stream_'
'stay'
'ssion'
'spee'
'specialist'
'south'
'soft_'
'sister_'
'significantly_'
'sib'
'sets_'
'scu'
'rted_'
'rn_'
'rial'
'reward'
'revenues_'
'resp'
'resolution_'
'rci'
'rated_'
'rall'
'quat'
'qualifie'
'put'
'purpose'
'purchase'
'provi'
'propo'
'promised_'
'producer_'
'procedure'
'pir'
'overc'
'ome_'
'ny'
'nha'
'neck'
'mmi'
'ministry_'
'micro'
'mic'
'lyn_'
'limits_'
'lb'
'late'
'knee_'
'kick_'
'ives_'
'invite'
'instance_'
'insta'
'insi'
'inn'
'infection'
'infe'
'improving_'
'imat'
'ild'
'ient'
'hist'
'grounds_'
'graphic'
'gnit'
'fication'
'exactly_'
'establish'
'erly_'
'ecess'
'eau_'
'dum'
'discr'
'disc'
'dest'
'deserve'
'deeply_'
'dd_'
'danc'
'corner_'
'collection_'
'closure_'
'claiming_'
'child'
'chea'
'bright'
'billions_'
'baseball_'
'base'
'aus'
'attempts_'
'asso'
'alis'
'advance_'
'accelerat'
'Valley_'
'TH'
'Several_'
'Santa'
'Regi'
'Put'
'Pra'
'Parliament_'
'Out'
'Next_'
'Minnesota_'
'Miller_'
'Ll'
'Land'
'Lab'
'Jan_'
'Here_'
'Fox_'
'Fel'
'DI'
'Christian_'
'Cho'
'Chil'
'Cast'
'Care'
'Bull'
'Bou'
'Bai'
'Are_'
'Acc'
'73'
'53_'
'youth_'
'yo_'
'yen_'
'worry_'
'window_'
'wind'
'visit'
'virtual'
'violent_'
'violation'
'vari'
'unpre'
'unk'
'uk'
'trag'
'tour'
'tens'
'teacher_'
'tap'
'tand'
'surprising'
'surface_'
'stands_'
'ssion_'
'sitting_'
'shut_'
'sheet'
'seventh_'
'securities_'
'routine'
'roughly_'
'revers'
'resolve'
'red'
'reaching_'
'rai'
'question'
'protecti'
'print'
'poll'
'poe'
'pledged_'
'photos_'
'panic'
'pac'
'orb'
'obse'
'networks_'
'mos'
'missile_'
'minorit'
'materials_'
'march'
'leve'
'lend'
'labor_'
'j_'
'internal_'
'innovati'
'impress'
'ight'
'idi'
'identify_'
'hospitals_'
'hman_'
'hes_'
'had'
'fran'
'finger'
'file'
'faith_'
'eum'
'ete'
'ening_'
'enhanc'
'eed'
'edge_'
'document'
'dir'
'delivered_'
'defeat'
'damaged_'
'criticis'
'crash'
'coal_'
'cide'
'chart'
'character_'
'champions'
'cert'
'center'
'casual'
'care'
'burg_'
'blow'
'bean'
'battle'
'avi'
'advanced_'
'ache'
'accept'
'Young_'
'Wea'
'Turkey_'
'Top'
'Southern_'
'SA_'
'PA_'
'Only_'
'Old'
'Nav'
'Nad'
'NI'
'Mot'
'LE'
'Jes'
'Hond'
'Fam'
'Ell'
'Each_'
'Consumer'
'Conservati'
'CEO_'
'Anton'
'Ai'
'1999_'
'zen'
'worr'
'warn'
'wall'
'vent'
'vate'
'unclear_'
'uli'
'uel'
'uation'
'ticket_'
'thanks_'
'tance'
'supporting_'
'stroke'
'sov'
'sno'
'shad'
'seve'
'sensitiv'
'roads_'
'revi'
'represents_'
'regulation_'
'realis'
'reader'
'qualify'
'ptic'
'psycho'
'prisoner'
'prescri'
'polit'
'pho'
'performed_'
'parad'
'outb'
'ono'
'ock_'
'nz'
'myself_'
'murder'
'ml'
'mir'
'meaning_'
'marks_'
'margin_'
'luck'
'lton_'
'ken'
'justif'
'ition'
'itat'
'invasi'
'initiative_'
'ination'
'impressive_'
'holi'
'hee'
'gd'
'fti'
'fill_'
'feed'
'explosion'
'emo'
'emba'
'dle_'
'dispute_'
'devastat'
'concentrat'
'compl'
'communicat'
'chip'
'chair_'
'boss_'
'bond'
'blow_'
'begins_'
'bbed_'
'bass'
'bank'
'atti'
'arily_'
'architect'
'amm'
'address'
'ace'
'abandon'
'Yo'
'Wind'
'Way'
'Walt'
'Tim_'
'Taylor_'
'Simon_'
'Saf'
'Reso'
'Profile_'
'Pea'
'OR'
'Medica'
'McG'
'Louis'
'Long_'
'Lis'
'IA'
'Hun'
'Hampshire_'
'Down'
'DS_'
'Conservative_'
'Clark'
'Bowl_'
'BS_'
'Aut'
'Ama'
'Ah'
'Academy_'
' . )_'
'zza'
'wne'
'wire'
'week'
'wee'
'volunteer'
'visited_'
'viously_'
'vie'
'veteran_'
'unless_'
'uld_'
'twe'
'tested_'
'studio'
'stepped_'
'squad'
'solutions_'
'sit_'
'sci'
'rian'
'returns_'
'resident'
'repeated_'
'remo'
'relia'
'record'
'realize'
'rator'
'pop_'
'outcome_'
'organizations_'
'orda'
'opt'
'offensive_'
'nsi'
'nn_'
'national'
'mous'
'mm'
'mina'
'loved_'
'love'
'lett'
'knowledge_'
'kno'
'iv'
'irre'
'investigat'
'intention'
'intensi'
'inent_'
'independence_'
'iden'
'hro'
'homel'
'heart'
'hai'
'guy_'
'gress'
'gol'
'foundation'
'follow'
'expl'
'eration_'
'eral'
'elsewhere_'
'dos'
'dl'
'dive'
'div'
'disor'
'discount'
'difficult'
'diet'
'delegate'
'decrease'
'db'
'completely_'
'compensation_'
'cle_'
'cket'
'chosen_'
'chain_'
'bot'
'bond_'
'beating_'
'ault'
'apply_'
'appear'
'advocate'
'adjust'
'accura'
'Yankees_'
'Wh'
'Ven'
'Tow'
'Sus'
'Sarah_'
'Ran'
'Qua'
'Polan'
'Mount'
'Kl'
'Kenya'
'Kent'
'Jay'
'Ira'
'Hus'
'Evan'
'ED'
'Dallas_'
'Boy'
'Attorney_'
'Andre'
'Ana'
'AS'
' . -- _'
'zz_'
'zone_'
'wide'
'vr'
'vir'
'ux'
'urs_'
'upset_'
'unh'
'unch'
'uncertaint'
'un_'
'uk_'
'tta'
'transp'
'thin'
'thank'
'tera'
'tende'
'tation'
'tar_'
'talent_'
'stuff'
'struggle_'
'somewh'
'sight'
'sell'
'scop'
'scandal'
'rural_'
'rough_'
'rican'
'respond_'
'respective'
'remove_'
'regarding_'
'reducing_'
'prompted_'
'plo'
'personnel_'
'pend'
'ovi'
'outp'
'otherwise_'
'organize'
'ore'
'offend'
'nou'
'nced_'
'ms'
'mpti'
'moves_'
'medi'
'located_'
'km'
'iron'
'indicated_'
'indicat'
'identity_'
'ida_'
'high'
'grou'
'graduate'
'grab'
'gment'
'gina'
'gil'
'gh_'
'generati'
'gee'
'freez'
'fel'
'ette'
'essi'
'episode'
'encounter'
'eliminate'
'electronic_'
'ecut'
'economies_'
'eating_'
'easier_'
'downturn_'
'doub'
'dm'
'distin'
'diplomatic_'
'dinner_'
'dier'
'developer'
'deposit'
'demonstrate'
'deadl'
'cycle_'
'crowd'
'contrast'
'confident_'
'column'
'coin'
'coa'
'cious_'
'choose_'
'chances_'
'ceme'
'campaign'
'branch'
'blood'
'bble'
'bbi'
'barre'
'bag_'
'astro'
'applications_'
'access'
'Yemen'
'Yahoo_'
'Where'
'Wei'
'Water'
'Tru'
'Ten'
'System'
'Swed'
'Stu'
'Stati'
'Sr'
'Spec'
'Sn'
'Sin'
'Qui'
'Petr'
'OU'
'Mou'
'Mala'
'Luc'
'Indi'
'Ia'
'Global_'
'Gene'
'Fre'
'Franc'
'Fil'
'Federer_'
'Earth_'
'Dev'
'Cons'
'Colorado_'
'Championship'
'Champions_'
'CH'
'Blue_'
'79'
'66_'
'61_'
'1990s_'
'winds'
'what'
'veil'
'ution'
'utili'
'uo'
'unb'
'terr'
'tba'
'string_'
'streak'
'stai'
'speculation_'
'shops_'
'shock_'
'shar'
'revol'
'returning_'
'repea'
'relation'
'rans'
'quir'
'questioned_'
'proved_'
'prove'
'premium'
'payment_'
'patro'
'pag'
'ov'
'oso'
'operate_'
'oin'
'occur'
'obvious_'
'notes_'
'nos'
'normal'
'ndu'
'nc'
'native'
'milita'
'meal'
'manufacturing_'
'manne'
'male_'
'lowe'
'lenders_'
'lem_'
'kind'
'jok'
'ject'
'itution'
'itu'
'insurgents_'
'inject'
'impossible_'
'ime_'
'iga'
'humanit'
'hs_'
'heav'
'healthy_'
'happens_'
'halt'
'grave'
'got'
'gm'
'gad'
'forma'
'extend_'
'exhibition'
'exclusive'
'evacuat'
'eng'
'efficient'
'editor_'
'ean_'
'dwi'
'drill'
'drea'
'drawing'
'disg'
'disciplin'
'differen'
'desperate'
'dece'
'ddl'
'ction'
'counter_'
'copi'
'constant'
'conspiracy_'
'complicat'
'coach'
'ced'
'categor'
'cards_'
'capita'
'bour'
'bled_'
'bert'
'bers'
'beer_'
'beautiful'
'attended_'
'assume'
'assessment'
'arrive'
'alongside_'
'adults_'
'abili'
'Xi'
'Whe'
'VA'
'Ut'
'The'
'Tenn'
'Space_'
'Society_'
'Sma'
'Sher'
'Science'
'Robinson_'
'River_'
'Repr'
'Rep_'
'Phil'
'PA'
'Moo'
'Mayo'
'Lyn'
'Lev'
'Judge_'
'Isl'
'Hug'
'Henry_'
'Gon'
'Games_'
'Ferr'
'Est'
'Ea'
'Coa'
'Calif_'
'Brother'
'Bell'
'Ath'
'71_'
'67_'
'63_'
'watched_'
'vy_'
'vou'
'viewers_'
'vete'
'vention'
'ultimately_'
'trop'
'transit'
'toni'
'tol'
'terror_'
'tau'
'tast'
'swine_'
'sweep'
'suff'
'structure_'
'stre'
'strategic_'
'snap'
'scrap'
'saving_'
'satisf'
'rts_'
'requires_'
'remark'
'regime_'
'rds_'
'raid_'
'pushing_'
'programm'
'profi'
'predicted_'
'practic'
'pool_'
'ples'
'perm'
'parl'
'parent'
'overseas_'
'onn'
'ongoing_'
'oner'
'oad_'
'nominat'
'nice_'
'nel'
'neither_'
'nding_'
'music'
'museum_'
'mpl'
'mination'
'minal'
'mental'
'medicine'
'mayor_'
'math'
'map'
'lson_'
'locke'
'learning_'
'lands'
'kilo'
'jan'
'iso'
'instruct'
'ino_'
'inning_'
'initi'
'infr'
'impro'
'ila'
'hosti'
'holds_'
'holder'
'hitting_'
'hardl'
'fur_'
'ffic'
'fes'
'farmers_'
'extremis'
'ev'
'erson_'
'envi'
'ena_'
'employe'
'edit'
'ect_'
'downs'
'dom'
'dio'
'detained_'
'deg'
'cula'
'cts_'
'criticize'
'counterp'
'conte'
'conclu'
'concept'
'collecti'
'coll'
'campus'
'buy'
'box'
'bomb'
'blame_'
'bill'
'automat'
'authori'
'assur'
'associated_'
'assess'
'appli'
'ality_'
'aim_'
'affi'
'Zo'
'York'
'Wol'
'WA'
'Vis'
'Victor'
'Tou'
'Time_'
'Sunn'
'Stadium_'
'Sport'
'Sale'
'SB'
'Roberts'
'Rac'
'RO'
'Quote_'
'Provi'
'Profess'
'Play'
'Pitt'
'Pennsylvania_'
'Park'
'Others_'
'Officials_'
'Niger'
'Nas'
'Michel'
'Market'
'Lewis_'
'Leg'
'Late'
'Lake_'
'LOS_'
'Il'
'ING'
'Hunt'
'Gl'
'Gir'
'Food_'
'Fis'
'FT'
'Emi'
'Dutch_'
'Dow'
'Divi'
'Corn'
'Commerc'
'Club_'
'Abu'
'ANGELES_'
'87'
'27'
'05'
' . - _'
' , $ _'
' , " " _'
'zon'
'xon'
'wors'
'worker_'
'wild_'
'values_'
'unn'
'uing_'
'types_'
'tional_'
'text_'
'symbol'
'sweet'
'surround'
'surprised_'
'surge_'
'strikes_'
'strengthen'
'stayed_'
'starts_'
'spoke'
'soar'
'sleep_'
'silver_'
'sati'
'sample'
'rubb'
'reta'
'reputa'
'remote'
'remarks_'
'rej'
'reduction_'
'rce_'
'ration'
'rage_'
'quoted_'
'prosecuti'
'principal'
'presidency_'
'phil'
'phan'
'pendent'
'peer'
'oz'
'ove'
'orte'
'orr'
'oro'
'organis'
'oration'
'ong_'
'oned_'
'nue'
'nist'
'necess'
'mission'
'mile_'
'messages_'
'lg'
'leads_'
'kee'
'jam'
'interc'
'intend'
'insure'
'insur'
'illus'
'igati'
'ificat'
'hew'
'headquarter'
'greatest_'
'gl'
'gian'
'fy_'
'fru'
'fantas'
'explosive'
'expen'
'establish_'
'essential_'
'erat'
'ener'
'embe'
'dor'
'doors_'
'donor'
'disaster_'
'destroy'
'decl'
'ddi'
'customer_'
'cting_'
'cred'
'craft'
'courts_'
'cour'
'contend'
'consistent'
'considerabl'
'consider'
'combat_'
'colli'
'cited_'
'capt'
'buc'
'bomber'
'backs_'
'association_'
'appre'
'applied_'
'apart_'
'actual_'
'acting_'
'ach'
'academic'
'Yes_'
'Venezuela'
'Vegas_'
'Ur'
'Trade'
'Tom'
'Tar'
'Spring'
'Sac'
'Rick'
'Rai'
'RS'
'RC'
'Pau'
'Ora'
'ON'
'NFL_'
'Master'
'Management_'
'Lon'
'Jordan'
'Industr'
'Inc'
'Human_'
'Greg'
'Giv'
'Gib'
'Gary_'
'GP'
'GE'
'Executive_'
'DA_'
'Crown_'
'Because_'
'Arsenal_'
'Ali'
'Ahmadinejad_'
'Abb'
'92'
'08'
' \u _'
' ... '
' . ...'
' - £ _'
' ( " _'
'wire_'
'winners_'
'web_'
'violat'
'vin_'
'ves'
'vaccine'
'usual_'
'urban'
'unveil'
'umi'
'ues_'
'tude'
'thro'
'thir'
'termina'
'teria'
'technique'
'task_'
'swo'
'supposed_'
'stun'
'steal'
'spre'
'space'
'sop'
'smil'
'skills_'
'satellite'
'rm_'
'ride_'
'rica'
'restore'
'ression'
'rent_'
'recei'
'reaction'
'rary_'
'ranking'
'practices_'
'posi'
'pleaded_'
'pitch_'
'pher'
'passion'
'participate'
'otte'
'opportuni'
'offens'
'neighbour'
'mud'
'moderate'
'models_'
'mixed_'
'mess'
'ligen'
'lesson'
'laun'
'kidnap'
'ject_'
'ista'
'ison'
'interesting_'
'incom'
'ilar'
'ication'
'hopeful'
'hine'
'heading_'
'futures_'
'front'
'fixed_'
'finish'
'festival_'
'fatal'
'false'
'extended_'
'explain_'
'evol'
'evaluat'
'enforcement_'
'electric_'
'elder'
'ek'
'drama_'
'dominate'
'descri'
'deliveri'
'deadline'
'damag'
'cure'
'cry'
'constitu'
'consol'
'competit'
'compari'
'commissione'
'comedy_'
'combination_'
'collaps'
'cler'
'cker_'
'cham'
'centr'
'carri'
'camera_'
'cabinet_'
'bowl'
'boot'
'bling_'
'bedroom_'
'banned_'
'avoid'
'aver'
'audit'
'atte'
'athlete'
'approv'
'appar'
'analysis_'
'amed_'
'alize'
'affairs_'
'acquir'
'VI'
'Thank'
'Technolog'
'Standard'
'Seve'
'Radio'
'Pentagon_'
'Nicol'
'Nation'
'NP'
'Miss_'
'Media'
'Matt_'
'Major'
'Lanc'
'Kurd'
'Kn'
'Intel'
'IP'
'Get'
'Gates_'
'Gam'
'Gal'
'Former_'
'Fli'
'Feb_'
'Fair'
'Economic'
'EA'
'DP_'
'Cuba_'
'Corporation_'
'Clas'
'Children_'
'Chen'
'Catholic_'
'But'
'Bridge'
'Boe'
'Ball'
'Bab'
'Asse'
'Andy_'
'AG'
'95_'
'91'
'88'
'700_'
'25'
'1997_'
' , ' _'
'zai_'
'yle'
'yell'
'xpe'
'worried_'
'voi'
'via'
'vest'
'urr'
'unin'
'trust'
'trees_'
'trav'
'tower'
'tire'
'throw_'
'tha'
'tas'
'survey'
'strain'
'stom'
'standard_'
'stak'
'sna'
'sharp_'
'shake'
'selection'
'scientific'
'sand_'
'sack'
'rus_'
'rout'
'respond'
'respect'
'requirements_'
'requi'
'reme_'
'regulators_'
'reference'
'redu'
'recovered_'
'rative_'
'rare'
'rable_'
'pursue'
'publici'
'pto'
'prost'
'properties_'
'prol'
'project'
'professional'
'prio'
'predicti'
'predict'
'pos'
'petr'
'partnership_'
'partly_'
'partisan_'
'pain'
'outs_'
'ology_'
'nomic'
'nder_'
'nded_'
'nation'
'mill'
'media'
'machine_'
'luxury_'
'location_'
'llin'
'lers_'
'laid_'
'kie'
'journey_'
'itute'
'isl'
'intr'
'indicati'
'incen'
'importan'
'impe'
'ico'
'hos'
'hones'
'hion'
'height'
'grad'
'glob'
'geno'
'gap'
'ful'
'fled'
'fields_'
'factory_'
'express'
'exclu'
'ex'
'erie'
'equivalent_'
'ency_'
'enci'
'employers_'
'emen'
'elli'
'eba'
'drinking_'
'distribution_'
'display_'
'dise'
'devices_'
'destroyed_'
'desire_'
'democra'
'delay_'
'criti'
'corre'
'convict'
'concert_'
'comme'
'cleare'
'chari'
'cello'
'calculat'
'bum'
'bers_'
'becomes_'
'basic_'
'atta'
'aside_'
'approximately_'
'application_'
'apa'
'anxi'
'ano_'
'amou'
'amend'
'ago'
'Zimbabwe'
'Wright_'
'Who_'
'Well_'
'Wan'
'Turk'
'Theat'
'Taiwan_'
'Stanley_'
'Series_'
'Sea_'
'Sain'
'Pros'
'Power'
'Pot'
'Poo'
'Pic'
'Palestinians_'
'NASA_'
'Maryland_'
'MP_'
'Lake'
'La_'
'Kno'
'Kee'
'Indonesia'
'Indiana_'
'Ic'
'Hy'
'Gulf'
'Gove'
'Frank_'
'Environment'
'Eas'
'Dre'
'Develop'
'Daniel_'
'DNA_'
'Cin'
'Chu'
'Cham'
'Call'
'Bis'
'Bear'
'Analyst'
'Ame'
' --'
'young'
'wle'
'widespread_'
'who'
'wedding'
'waters'
'vital'
'uni'
'unf'
'ule'
'tz_'
'truly_'
'trea'
'travell'
'torture'
'tone'
'titles_'
'thy_'
'therap'
'testif'
'teenager_'
'tax'
'tan_'
'tackle_'
'submit'
'styl'
'stable_'
'ssy_'
'sso'
'ssel'
'split_'
'spel'
'sne'
'secre'
'sas_'
'salary_'
'rug'
'rod'
'rio'
'rid_'
'retailers_'
'resume'
'rescu'
'repeatedly_'
'repa'
'reno'
'regulati'
'recommendation'
'quarterback_'
'pte'
'provider_'
'ports_'
'plastic'
'plac'
'pie'
'patter'
'ownership_'
'osa'
'originally_'
'ories_'
'optimis'
'ook_'
'nand'
'musical_'
'mou'
'mmy_'
'minor_'
'minimum_'
'mechani'
'maxim'
'magi'
'loyal'
'lla_'
'lib'
'lf'
'lette'
'legi'
'leak'
'lder'
'las_'
'ken_'
'journal'
'j'
'izon_'
'ira'
'intim'
'ined_'
'inciden'
'illness_'
'iet'
'iance_'
'iPhone_'
'hyp'
'hole'
'historical'
'heat_'
'hate'
'harder_'
'grass'
'golf'
'geti'
'fundamental'
'folio'
'flower'
'ffl'
'fea'
'expert_'
'esti'
'ened_'
'elop'
'elin'
'effectively_'
'edition'
'ects_'
'ducti'
'dream_'
'domin'
'document_'
'dney'
'dismissed_'
'detain'
'destin'
'denti'
'demonstration'
'demanding_'
'deliberat'
'del_'
'dedicat'
'daughters_'
'communications_'
'cock'
'clothes_'
'chron'
'campaigns_'
'camp'
'boom'
'birds_'
'atm'
'ater'
'argue_'
'appropriate_'
'appr'
'allies_'
'advertise'
'acts_'
'ach_'
'abortion_'
'Your_'
'Year_'
'Wom'
'Vietnam_'
'Ukrain'
'Tech'
'THE_'
'Such_'
'Stri'
'Sm'
'Sh'
'Schw'
'Sav'
'Rou'
'Ret'
'Republic_'
'Rat'
'Pos'
'Pho'
'Mali'
'Low'
'Lig'
'Les'
'Jason_'
'IM'
'Howar'
'HE'
'Greek'
'Gian'
'FirstCall_'
'FI'
'Eric_'
'Cleve'
'Chairman_'
'Can_'
'Camb'
'Ark'
'Anderson_'
'And'
'93'
'80'
'76_'
'-- '
'-'
') _'
'$ '
' % .'
'zer_'
'zar'
'water'
'wash'
'warr'
'vem'
'variety_'
'user'
'use'
'unfai'
'undergr'
'tting_'
'travele'
'toy'
'topp'
'tighte'
'thinks_'
'tex'
'terrori'
'territory_'
'tend_'
'technical_'
'tch'
'takeo'
'swin'
'swi'
'suspicion'
'surge'
'supplier'
'suppl'
'suggesting_'
'suburb'
'substantial'
'storm'
'stle'
'stick'
'stadium'
'specta'
'sni'
'slump'
'slam'
'skin_'
'silen'
'sick_'
'shutt'
'shu'
'ship'
'shared_'
'sel_'
'save'
'ruct'
'rtion'
'robber'
'rno'
'river_'
'rge'
'retir'
'restriction'
'resistan'
'relati'
'reak'
'rdinat'
'rais'
'quest'
'provinc'
'proud'
'promotion'
'preserv'
'praise'
'pound_'
'possession_'
'pollut'
'pointed_'
'pm_'
'pill'
'photo'
'pet_'
'passe'
'oversee'
'orate'
'opponents_'
'omis'
'ocean'
'numer'
'nomination_'
'nion'
'nationali'
'myst'
'motivat'
'mise'
'matches_'
'marke'
'managing_'
'mail'
'lure'
'local'
'links_'
'lem'
'led'
'lance_'
'jumped_'
'isi'
'investments_'
'inse'
'ind'
'imagine'
'ient_'
'iP'
'human'
'hole_'
'hips'
'hest'
'gt'
'gible_'
'gesti'
'friendly_'
'fought_'
'flexib'
'financing_'
'film'
'favouri'
'etic'
'ethnic_'
'escape_'
'erma'
'entering_'
'ensu'
'employee_'
'electro'
'ehol'
'eate'
'ears'
'dresse'
'drawn_'
'download'
'distance_'
'disrupt'
'dence_'
'define'
'cust'
'curb'
'couples_'
'counti'
'conven'
'contemp'
'consen'
'congr'
'confront'
'cof'
'coc'
'clou'
'ckey_'
'came'
'bust'
'broadcast'
'broad_'
'bridge_'
'bli'
'bite'
'benefi'
'belong'
'beach_'
'attempted_'
'anger'
'analy'
'activ'
'accompan'
'Zealand_'
'Vol'
'USA_'
'Twitter_'
'Sudan_'
'Sov'
'Riv'
'Rang'
'Pin'
'Pet'
'Oct'
'Oa'
'McD'
'Mas'
'Laur'
'Jos'
'Jona'
'Hom'
'Gh'
'Five_'
'Fan'
'Fac'
'Enter'
'Edw'
'Dani'
'Dan_'
'Craig'
'Count'
'Corp'
'Commons_'
'Columbia_'
'CB'
'Austr'
'Arabia'
'Anthony_'
'Adam_'
': '
'84_'
'81'
'77_'
'68_'
'1960'
'00'
'''
' ....'
' ... . _'
' + _'
'zzl'
'zard'
'zab'
'yu'
'yoursel'
'welcome'
'video'
'vag'
'uts_'
'usly_'
'unity_'
'unique_'
'union'
'understanding'
'undermin'
'und_'
'ugu'
'uca'
'transfer'
'tourists_'
'ths'
'thrown_'
'threats_'
'threatening_'
'td'
'surrounding'
'subsequent'
'subject'
'struggled_'
'stol'
'stick_'
'slipp'
'sive'
'sis_'
'shop'
'shin'
'shift'
'sham'
'sey_'
'sessi'
'ser_'
'sending_'
'scan'
'saved_'
'sat_'
'rtin'
'rock'
'review'
'resor'
'repr'
'rend'
'refin'
'recognis'
'rebuil'
'radical_'
'promise_'
'prof'
'prepare_'
'premier'
'precis'
'pray'
'pover'
'planes_'
'pl'
'piece'
'phase'
'pharma'
'persua'
'ospher'
'operate'
'onis'
'ogu'
'ocat'
'oblig'
'objecti'
'nominee_'
'ninth_'
'nbu'
'mun'
'mouth'
'monthl'
'merger'
'matter'
'manu'
'manage_'
'lock'
'ller_'
'lift_'
'liberal_'
'lfriend'
'leave'
'kov'
'key'
'jai'
'ishe'
'iple'
'intense_'
'intel'
'instrument'
'innoc'
'imo'
'immigrants_'
'iment'
'ile_'
'iation'
'hik'
'het'
'heat'
'hap'
'handle_'
'guns_'
'genc'
'gathering'
'franchis'
'founde'
'formed_'
'fol'
'flooding_'
'fat_'
'fail_'
'expansion_'
'except_'
'esent'
'enthus'
'entertainment_'
'emotional'
'emerge'
'eland'
'dry'
'dn'
'directed_'
'dies'
'dese'
'defensive_'
'decid'
'dealing_'
'ctiv'
'counter'
'cost'
'consultant'
'const'
'consequence'
'congressional'
'comprehensive_'
'comfortabl'
'code_'
'cles_'
'cking_'
'circums'
'chemical'
'chee'
'cheape'
'cause'
'burning_'
'brothe'
'brief_'
'bric'
'breast'
'bidd'
'beth'
'awarde'
'atu'
'ase_'
'artists_'
'arn'
'anticipate'
'anonymity_'
'anno'
'anniversary_'
'ams'
'ake'
'adviser_'
'addi'
'activists_'
'acquisition_'
'abse'
'Whi'
'Sun_'
'Stor'
'Sti'
'Staf'
'Secur'
'SC'
'Rem'
'Reco'
'Over'
'Orleans_'
'Ore'
'Oil'
'Off'
'Nasdaq_'
'Moore'
'Mobi'
'Mili'
'Huck'
'Hotel_'
'Hop'
'Harry_'
'Fie'
'Edwards_'
'Daily_'
'Cross'
'Cow'
'Colli'
'Cole'
'Coast_'
'Cam'
'Brazilian_'
'Bloom'
'Beach_'
'Ara'
'98'
'86'
'82'
'24'
'1992_'
'120'
'..'
','
' ) ; '
'+'
'*'
'!'
'•'
'á'
'@'
'('
'ʼ'
']'
'/'
'#'
'í'
'>'
'|'
'»'
'·'
'\'
'½'
'ó'
'['
')'
'Â'
'<'
'='
'ü'
'è'
'ç'
'ñ'
'â'
'à'
'ö'
'¶'
'´'
'®'
'‚'
'ú'
'ã'
'°'
'¢'
''
'&'
'‑'
'ô'
'ï'
'¿'
'¼'
'.'
'●'
'€'
'î'
'ë'
'ä'
'¾'
'ê'
'Í'
'Ã'
'~'
'^'
'♥'
'‟'
'×'
'É'
'Á'
'«'
'©'
'�'
'£'
';'
':'
'%'
'$'
